{
  "version": "1.0",
  "truncation": null,
  "padding": null,
  "added_tokens": [
    {
      "id": 0,
      "content": "[PAD]",
      "single_word": false,
      "lstrip": false,
      "rstrip": false,
      "normalized": false,
      "special": true
    },
    {
      "id": 1,
      "content": "[UNK]",
      "single_word": false,
      "lstrip": false,
      "rstrip": false,
      "normalized": false,
      "special": true
    }
  ],
  "normalizer": null,
  "pre_tokenizer": {
    "type": "Whitespace"
  },
  "post_processor": null,
  "decoder": null,
  "model": {
    "type": "BPE",
    "dropout": null,
    "unk_token": "[UNK]",
    "continuing_subword_prefix": null,
    "end_of_word_suffix": null,
    "fuse_unk": false,
    "byte_fallback": false,
    "vocab": {
      "[PAD]": 0,
      "[UNK]": 1,
      "!": 2,
      "\"": 3,
      "#": 4,
      "$": 5,
      "%": 6,
      "&": 7,
      "'": 8,
      "(": 9,
      ")": 10,
      "*": 11,
      "+": 12,
      ",": 13,
      "-": 14,
      ".": 15,
      "/": 16,
      "0": 17,
      "1": 18,
      "2": 19,
      "3": 20,
      "4": 21,
      "5": 22,
      "6": 23,
      "7": 24,
      "8": 25,
      "9": 26,
      ":": 27,
      ";": 28,
      "<": 29,
      "=": 30,
      ">": 31,
      "?": 32,
      "@": 33,
      "A": 34,
      "B": 35,
      "C": 36,
      "D": 37,
      "E": 38,
      "F": 39,
      "G": 40,
      "H": 41,
      "I": 42,
      "J": 43,
      "K": 44,
      "L": 45,
      "M": 46,
      "N": 47,
      "O": 48,
      "P": 49,
      "Q": 50,
      "R": 51,
      "S": 52,
      "T": 53,
      "U": 54,
      "V": 55,
      "W": 56,
      "X": 57,
      "Y": 58,
      "Z": 59,
      "[": 60,
      "\\": 61,
      "]": 62,
      "^": 63,
      "`": 64,
      "a": 65,
      "b": 66,
      "c": 67,
      "d": 68,
      "e": 69,
      "f": 70,
      "g": 71,
      "h": 72,
      "i": 73,
      "j": 74,
      "k": 75,
      "l": 76,
      "m": 77,
      "n": 78,
      "o": 79,
      "p": 80,
      "q": 81,
      "r": 82,
      "s": 83,
      "t": 84,
      "u": 85,
      "v": 86,
      "w": 87,
      "x": 88,
      "y": 89,
      "z": 90,
      "|": 91,
      "~": 92,
      "¡": 93,
      "£": 94,
      "¥": 95,
      "§": 96,
      "°": 97,
      "±": 98,
      "²": 99,
      "³": 100,
      "µ": 101,
      "·": 102,
      "½": 103,
      "Á": 104,
      "Å": 105,
      "Æ": 106,
      "É": 107,
      "Í": 108,
      "Î": 109,
      "Ö": 110,
      "×": 111,
      "Ø": 112,
      "Ú": 113,
      "Ü": 114,
      "Þ": 115,
      "à": 116,
      "á": 117,
      "â": 118,
      "ã": 119,
      "ä": 120,
      "å": 121,
      "ç": 122,
      "è": 123,
      "é": 124,
      "ê": 125,
      "ë": 126,
      "ì": 127,
      "í": 128,
      "î": 129,
      "ñ": 130,
      "ò": 131,
      "ó": 132,
      "ô": 133,
      "ö": 134,
      "ø": 135,
      "ú": 136,
      "û": 137,
      "ü": 138,
      "Ā": 139,
      "ā": 140,
      "ă": 141,
      "ć": 142,
      "č": 143,
      "Đ": 144,
      "đ": 145,
      "ė": 146,
      "ī": 147,
      "Ł": 148,
      "ł": 149,
      "ń": 150,
      "Ō": 151,
      "ō": 152,
      "ś": 153,
      "ş": 154,
      "š": 155,
      "ū": 156,
      "ų": 157,
      "Ż": 158,
      "ž": 159,
      "ơ": 160,
      "ư": 161,
      "ʻ": 162,
      "ʿ": 163,
      "̃": 164,
      "α": 165,
      "β": 166,
      "γ": 167,
      "κ": 168,
      "μ": 169,
      "С": 170,
      "а": 171,
      "в": 172,
      "е": 173,
      "к": 174,
      "о": 175,
      "с": 176,
      "т": 177,
      "я": 178,
      "ا": 179,
      "ح": 180,
      "ص": 181,
      "ل": 182,
      "ن": 183,
      "ه": 184,
      "्": 185,
      "ก": 186,
      "ง": 187,
      "ณ": 188,
      "ต": 189,
      "ม": 190,
      "ย": 191,
      "ร": 192,
      "ล": 193,
      "ั": 194,
      "า": 195,
      "ิ": 196,
      "่": 197,
      "์": 198,
      "გ": 199,
      "დ": 200,
      "ვ": 201,
      "ზ": 202,
      "ი": 203,
      "კ": 204,
      "ო": 205,
      "რ": 206,
      "ს": 207,
      "უ": 208,
      "ც": 209,
      "ძ": 210,
      "წ": 211,
      "ხ": 212,
      "ჯ": 213,
      "჻": 214,
      "ḥ": 215,
      "ṃ": 216,
      "ṅ": 217,
      "ṣ": 218,
      "ṭ": 219,
      "ṯ": 220,
      "ả": 221,
      "ấ": 222,
      "ầ": 223,
      "ắ": 224,
      "ễ": 225,
      "ệ": 226,
      "ị": 227,
      "ớ": 228,
      "ử": 229,
      "ỳ": 230,
      "‑": 231,
      "–": 232,
      "—": 233,
      "‘": 234,
      "’": 235,
      "“": 236,
      "”": 237,
      "„": 238,
      "†": 239,
      "…": 240,
      "′": 241,
      "″": 242,
      "⁄": 243,
      "₤": 244,
      "€": 245,
      "₹": 246,
      "⅓": 247,
      "⅔": 248,
      "→": 249,
      "−": 250,
      "≤": 251,
      "☉": 252,
      "♭": 253,
      "♯": 254,
      "〈": 255,
      "〉": 256,
      "の": 257,
      "ァ": 258,
      "ア": 259,
      "キ": 260,
      "ス": 261,
      "ッ": 262,
      "ト": 263,
      "プ": 264,
      "ュ": 265,
      "リ": 266,
      "ル": 267,
      "ヴ": 268,
      "・": 269,
      "動": 270,
      "場": 271,
      "大": 272,
      "戦": 273,
      "攻": 274,
      "機": 275,
      "殻": 276,
      "火": 277,
      "礮": 278,
      "空": 279,
      "隊": 280,
      "﻿": 281,
      "～": 282,
      "th": 283,
      "in": 284,
      "the": 285,
      "an": 286,
      "er": 287,
      "on": 288,
      "ed": 289,
      "re": 290,
      "un": 291,
      "at": 292,
      "or": 293,
      "en": 294,
      "st": 295,
      "al": 296,
      "ar": 297,
      "of": 298,
      "and": 299,
      "as": 300,
      "unk": 301,
      "is": 302,
      "es": 303,
      "to": 304,
      "ing": 305,
      "it": 306,
      "ic": 307,
      "ro": 308,
      "ion": 309,
      "he": 310,
      "le": 311,
      "ou": 312,
      "ac": 313,
      "ent": 314,
      "il": 315,
      "se": 316,
      "ad": 317,
      "am": 318,
      "om": 319,
      "be": 320,
      "ly": 321,
      "was": 322,
      "for": 323,
      "ch": 324,
      "ur": 325,
      "ve": 326,
      "de": 327,
      "The": 328,
      "ir": 329,
      "ol": 330,
      "-@": 331,
      "@-@": 332,
      "im": 333,
      "wh": 334,
      "ver": 335,
      "ow": 336,
      "ig": 337,
      "wi": 338,
      "ter": 339,
      "ce": 340,
      "ay": 341,
      "that": 342,
      "with": 343,
      "con": 344,
      "ation": 345,
      "ct": 346,
      "ag": 347,
      "by": 348,
      "te": 349,
      "id": 350,
      "us": 351,
      "ot": 352,
      "ri": 353,
      "ul": 354,
      "el": 355,
      "19": 356,
      "ap": 357,
      "res": 358,
      "ere": 359,
      "ain": 360,
      "rom": 361,
      "com": 362,
      "et": 363,
      "op": 364,
      "pl": 365,
      "his": 366,
      "ut": 367,
      "00": 368,
      "mo": 369,
      "su": 370,
      "all": 371,
      "ab": 372,
      "are": 373,
      "ers": 374,
      "um": 375,
      "li": 376,
      "ther": 377,
      "from": 378,
      "pro": 379,
      "pe": 380,
      "di": 381,
      "In": 382,
      "ne": 383,
      "sh": 384,
      "und": 385,
      "cl": 386,
      "ate": 387,
      "po": 388,
      "tr": 389,
      "art": 390,
      "were": 391,
      "em": 392,
      "so": 393,
      "ong": 394,
      "igh": 395,
      "ex": 396,
      "est": 397,
      "ies": 398,
      "ld": 399,
      "ist": 400,
      "ich": 401,
      "ill": 402,
      "ak": 403,
      "ast": 404,
      "ish": 405,
      "ard": 406,
      "gh": 407,
      "ame": 408,
      "ber": 409,
      "lo": 410,
      "ort": 411,
      "co": 412,
      "od": 413,
      "ated": 414,
      "ity": 415,
      "ant": 416,
      "per": 417,
      "fe": 418,
      "ive": 419,
      "ment": 420,
      "man": 421,
      "out": 422,
      "had": 423,
      "qu": 424,
      "ess": 425,
      "ear": 426,
      "ack": 427,
      "one": 428,
      "vi": 429,
      "tw": 430,
      "end": 431,
      "which": 432,
      "ord": 433,
      "our": 434,
      "ha": 435,
      "not": 436,
      "up": 437,
      "af": 438,
      "but": 439,
      "ge": 440,
      "rit": 441,
      "str": 442,
      "fo": 443,
      "ally": 444,
      "ine": 445,
      "its": 446,
      "si": 447,
      "act": 448,
      "ci": 449,
      "ight": 450,
      "fir": 451,
      "her": 452,
      "Ch": 453,
      "ary": 454,
      "200": 455,
      "ud": 456,
      "own": 457,
      "du": 458,
      "ved": 459,
      "bo": 460,
      "20": 461,
      "pr": 462,
      "av": 463,
      "over": 464,
      "port": 465,
      "their": 466,
      "ass": 467,
      "land": 468,
      "ip": 469,
      "ew": 470,
      "ian": 471,
      "St": 472,
      "first": 473,
      "ous": 474,
      "ach": 475,
      "ould": 476,
      "ep": 477,
      "ical": 478,
      "wor": 479,
      "fic": 480,
      "other": 481,
      "age": 482,
      "also": 483,
      "low": 484,
      "unt": 485,
      "ition": 486,
      "ser": 487,
      "tim": 488,
      "has": 489,
      "form": 490,
      "ction": 491,
      "ater": 492,
      "ub": 493,
      "ign": 494,
      "au": 495,
      "pt": 496,
      "aw": 497,
      "comp": 498,
      "ll": 499,
      "ure": 500,
      "ev": 501,
      "have": 502,
      "play": 503,
      "att": 504,
      "int": 505,
      "who": 506,
      "18": 507,
      "ia": 508,
      "ke": 509,
      "He": 510,
      "iv": 511,
      "cre": 512,
      "pos": 513,
      "been": 514,
      "ome": 515,
      "gr": 516,
      "two": 517,
      "part": 518,
      "no": 519,
      "sp": 520,
      ".@": 521,
      "@.@": 522,
      "ence": 523,
      "cont": 524,
      "uring": 525,
      "gu": 526,
      "ough": 527,
      "ree": 528,
      "cent": 529,
      "ran": 530,
      "pres": 531,
      "ok": 532,
      "this": 533,
      "des": 534,
      "ory": 535,
      "It": 536,
      "ile": 537,
      "oc": 538,
      "me": 539,
      "they": 540,
      "year": 541,
      "ade": 542,
      "201": 543,
      "fin": 544,
      "after": 545,
      "dis": 546,
      "comm": 547,
      "ult": 548,
      "ite": 549,
      "cord": 550,
      "pre": 551,
      "ans": 552,
      "vel": 553,
      "fer": 554,
      "rou": 555,
      "Th": 556,
      "fi": 557,
      "we": 558,
      "incl": 559,
      "ren": 560,
      ",@": 561,
      "@,@": 562,
      "An": 563,
      "ue": 564,
      "ell": 565,
      "ever": 566,
      "work": 567,
      "os": 568,
      "urn": 569,
      "ations": 570,
      "ace": 571,
      "time": 572,
      "ra": 573,
      "mer": 574,
      "ric": 575,
      "ark": 576,
      "into": 577,
      "sc": 578,
      "more": 579,
      "rough": 580,
      "able": 581,
      "ial": 582,
      "Un": 583,
      "ced": 584,
      "spe": 585,
      "most": 586,
      "sion": 587,
      "ship": 588,
      "any": 589,
      "ance": 590,
      "tem": 591,
      "old": 592,
      "she": 593,
      "would": 594,
      "him": 595,
      "ason": 596,
      "ces": 597,
      "cond": 598,
      "main": 599,
      "gro": 600,
      "used": 601,
      "amp": 602,
      "red": 603,
      "inter": 604,
      "ited": 605,
      "cted": 606,
      "ice": 607,
      "ased": 608,
      "bec": 609,
      "Al": 610,
      "includ": 611,
      "fore": 612,
      "br": 613,
      "though": 614,
      "ck": 615,
      "ern": 616,
      "fl": 617,
      "ath": 618,
      "ings": 619,
      "min": 620,
      "new": 621,
      "gan": 622,
      "ten": 623,
      "ild": 624,
      "way": 625,
      "mon": 626,
      "only": 627,
      "song": 628,
      "ubl": 629,
      "when": 630,
      "cess": 631,
      "ake": 632,
      "iz": 633,
      "ie": 634,
      "Au": 635,
      "under": 636,
      "air": 637,
      "vis": 638,
      "Ro": 639,
      "ates": 640,
      "ase": 641,
      "ents": 642,
      "them": 643,
      "als": 644,
      "bu": 645,
      "during": 646,
      "ts": 647,
      "ail": 648,
      "ph": 649,
      "ions": 650,
      "arch": 651,
      "reg": 652,
      "game": 653,
      "go": 654,
      "ted": 655,
      "ilm": 656,
      "ind": 657,
      "ang": 658,
      "een": 659,
      "col": 660,
      "ward": 661,
      "les": 662,
      "og": 663,
      "En": 664,
      "Ar": 665,
      "ollow": 666,
      "can": 667,
      "199": 668,
      "about": 669,
      "ret": 670,
      "nor": 671,
      "son": 672,
      "day": 673,
      "outh": 674,
      "season": 675,
      "some": 676,
      "ry": 677,
      "than": 678,
      "kn": 679,
      "writ": 680,
      "ble": 681,
      "while": 682,
      "again": 683,
      "lar": 684,
      "gen": 685,
      "sy": 686,
      "three": 687,
      "sing": 688,
      "ob": 689,
      "if": 690,
      "ors": 691,
      "On": 692,
      "stru": 693,
      "ef": 694,
      "char": 695,
      "betw": 696,
      "between": 697,
      "record": 698,
      "Jo": 699,
      "num": 700,
      "where": 701,
      "produ": 702,
      "ational": 703,
      "through": 704,
      "Re": 705,
      "ular": 706,
      "cr": 707,
      "Wh": 708,
      "dr": 709,
      "ens": 710,
      "ick": 711,
      "later": 712,
      "led": 713,
      "rele": 714,
      "Com": 715,
      "iver": 716,
      "film": 717,
      "view": 718,
      "Af": 719,
      "ann": 720,
      "ames": 721,
      "ty": 722,
      "ered": 723,
      "ful": 724,
      "made": 725,
      "ished": 726,
      "ust": 727,
      "mi": 728,
      "set": 729,
      "sa": 730,
      "then": 731,
      "cons": 732,
      "ele": 733,
      "rel": 734,
      "New": 735,
      "do": 736,
      "As": 737,
      "ron": 738,
      "Amer": 739,
      "Americ": 740,
      "ury": 741,
      "10": 742,
      "call": 743,
      "bum": 744,
      "ire": 745,
      "row": 746,
      "off": 747,
      "my": 748,
      "follow": 749,
      "ict": 750,
      "appe": 751,
      "ss": 752,
      "000": 753,
      "high": 754,
      "such": 755,
      "second": 756,
      "ating": 757,
      "sel": 758,
      "med": 759,
      "sub": 760,
      "four": 761,
      "ose": 762,
      "publ": 763,
      "ton": 764,
      "Le": 765,
      "cap": 766,
      "This": 767,
      "ving": 768,
      "cri": 769,
      "well": 770,
      "ters": 771,
      "..": 772,
      "album": 773,
      "before": 774,
      "ari": 775,
      "At": 776,
      "ma": 777,
      "cur": 778,
      "mus": 779,
      "ily": 780,
      "rop": 781,
      "being": 782,
      "back": 783,
      "sur": 784,
      "je": 785,
      "urch": 786,
      "ual": 787,
      "years": 788,
      "16": 789,
      "sup": 790,
      "loc": 791,
      "ven": 792,
      "there": 793,
      "Eng": 794,
      "owever": 795,
      "No": 796,
      "appear": 797,
      "hel": 798,
      "arri": 799,
      "many": 800,
      "ics": 801,
      "use": 802,
      "found": 803,
      "ins": 804,
      "ning": 805,
      "long": 806,
      "number": 807,
      "Co": 808,
      "series": 809,
      "De": 810,
      "12": 811,
      "add": 812,
      "like": 813,
      "side": 814,
      "ative": 815,
      "ause": 816,
      "velop": 817,
      "mber": 818,
      "point": 819,
      "ince": 820,
      "reat": 821,
      "ird": 822,
      "17": 823,
      "Nor": 824,
      "Mo": 825,
      "both": 826,
      "ane": 827,
      "sever": 828,
      "par": 829,
      "ities": 830,
      "der": 831,
      "15": 832,
      "cho": 833,
      "ft": 834,
      "including": 835,
      "cept": 836,
      "epis": 837,
      "ave": 838,
      "Brit": 839,
      "ho": 840,
      "dire": 841,
      "ale": 842,
      "against": 843,
      "known": 844,
      "igin": 845,
      "became": 846,
      "line": 847,
      "pop": 848,
      "uary": 849,
      "hn": 850,
      "ound": 851,
      "charac": 852,
      "oy": 853,
      "feat": 854,
      "II": 855,
      "ese": 856,
      "198": 857,
      "dif": 858,
      "down": 859,
      "cover": 860,
      "eld": 861,
      "ments": 862,
      "descri": 863,
      "ident": 864,
      "United": 865,
      "ek": 866,
      "tain": 867,
      "eng": 868,
      "atch": 869,
      "ond": 870,
      "team": 871,
      "John": 872,
      "30": 873,
      "suc": 874,
      "develop": 875,
      "trans": 876,
      "olog": 877,
      "century": 878,
      "ise": 879,
      "After": 880,
      "peri": 881,
      "ode": 882,
      "show": 883,
      "origin": 884,
      "lead": 885,
      "Br": 886,
      "cer": 887,
      "ped": 888,
      "contin": 889,
      "cial": 890,
      "ures": 891,
      "star": 892,
      "offic": 893,
      "hist": 894,
      "called": 895,
      "ide": 896,
      "ung": 897,
      "stor": 898,
      "194": 899,
      "bed": 900,
      "mem": 901,
      "lack": 902,
      "mill": 903,
      "cle": 904,
      "west": 905,
      "several": 906,
      "oper": 907,
      "uch": 908,
      "comple": 909,
      "lan": 910,
      "sign": 911,
      "began": 912,
      "196": 913,
      "ball": 914,
      "may": 915,
      "Be": 916,
      "197": 917,
      "Con": 918,
      "ves": 919,
      "road": 920,
      "dec": 921,
      "ised": 922,
      "pol": 923,
      "remain": 924,
      "ually": 925,
      "sm": 926,
      "near": 927,
      "early": 928,
      "head": 929,
      "present": 930,
      "could": 931,
      "crit": 932,
      "She": 933,
      "did": 934,
      "ific": 935,
      "run": 936,
      "episode": 937,
      "eral": 938,
      "war": 939,
      "la": 940,
      "ple": 941,
      "ended": 942,
      "ject": 943,
      "une": 944,
      "ste": 945,
      "dam": 946,
      "rece": 947,
      "ople": 948,
      "self": 949,
      "along": 950,
      "large": 951,
      "nam": 952,
      "spec": 953,
      "Wor": 954,
      "try": 955,
      "ress": 956,
      "ore": 957,
      "said": 958,
      "American": 959,
      "success": 960,
      "vid": 961,
      "these": 962,
      "For": 963,
      "ith": 964,
      "gust": 965,
      "aking": 966,
      "May": 967,
      "mil": 968,
      "position": 969,
      "open": 970,
      "Mar": 971,
      "ms": 972,
      "por": 973,
      "pass": 974,
      "dep": 975,
      "stem": 976,
      "British": 977,
      "met": 978,
      "ley": 979,
      "erson": 980,
      "Sh": 981,
      "until": 982,
      "War": 983,
      "fam": 984,
      "leg": 985,
      "now": 986,
      "released": 987,
      "start": 988,
      "city": 989,
      "ines": 990,
      "ood": 991,
      "Ger": 992,
      "music": 993,
      "same": 994,
      "tow": 995,
      "val": 996,
      "Se": 997,
      "thern": 998,
      "ived": 999,
      "return": 1000,
      "Car": 1001,
      "They": 1002,
      "50": 1003,
      "gg": 1004,
      "km": 1005,
      "cy": 1006,
      "area": 1007,
      "design": 1008,
      "ru": 1009,
      "jor": 1010,
      "million": 1011,
      "tri": 1012,
      "orn": 1013,
      "state": 1014,
      "because": 1015,
      "mis": 1016,
      "ca": 1017,
      "ather": 1018,
      "formed": 1019,
      "xt": 1020,
      "each": 1021,
      "sim": 1022,
      "plac": 1023,
      "August": 1024,
      "14": 1025,
      "ink": 1026,
      "overn": 1027,
      "rist": 1028,
      "come": 1029,
      "vol": 1030,
      "hy": 1031,
      "fect": 1032,
      "read": 1033,
      "vide": 1034,
      "life": 1035,
      "people": 1036,
      "13": 1037,
      "east": 1038,
      "ower": 1039,
      "grap": 1040,
      "Sep": 1041,
      "ross": 1042,
      "chool": 1043,
      "Ju": 1044,
      "national": 1045,
      "serv": 1046,
      "car": 1047,
      "support": 1048,
      "six": 1049,
      "coun": 1050,
      "io": 1051,
      "around": 1052,
      "let": 1053,
      "stral": 1054,
      "However": 1055,
      "itt": 1056,
      "ib": 1057,
      "group": 1058,
      "Is": 1059,
      "ision": 1060,
      "rote": 1061,
      "field": 1062,
      "north": 1063,
      "ized": 1064,
      "Bo": 1065,
      "attack": 1066,
      "list": 1067,
      "ouse": 1068,
      "tember": 1069,
      "September": 1070,
      "consid": 1071,
      "Fe": 1072,
      "small": 1073,
      "dist": 1074,
      "book": 1075,
      "following": 1076,
      "men": 1077,
      "character": 1078,
      "continu": 1079,
      "light": 1080,
      "will": 1081,
      "less": 1082,
      "mark": 1083,
      "World": 1084,
      "ured": 1085,
      "enn": 1086,
      "prote": 1087,
      "contro": 1088,
      "Eu": 1089,
      "ash": 1090,
      "Austral": 1091,
      "top": 1092,
      "very": 1093,
      "five": 1094,
      "sou": 1095,
      "late": 1096,
      "win": 1097,
      "result": 1098,
      "ground": 1099,
      "vent": 1100,
      "ales": 1101,
      "lish": 1102,
      "dom": 1103,
      "requ": 1104,
      "get": 1105,
      "what": 1106,
      "sol": 1107,
      "cording": 1108,
      "tit": 1109,
      "stand": 1110,
      "ank": 1111,
      "ague": 1112,
      "rest": 1113,
      "track": 1114,
      "ivers": 1115,
      "Col": 1116,
      "report": 1117,
      "US": 1118,
      "aim": 1119,
      "ural": 1120,
      "bers": 1121,
      "az": 1122,
      "ody": 1123,
      "vision": 1124,
      "June": 1125,
      "reach": 1126,
      "North": 1127,
      "played": 1128,
      "aged": 1129,
      "ired": 1130,
      "final": 1131,
      "ied": 1132,
      "ctor": 1133,
      "build": 1134,
      "week": 1135,
      "last": 1136,
      "pon": 1137,
      "Her": 1138,
      "name": 1139,
      "vari": 1140,
      "atter": 1141,
      "count": 1142,
      "ious": 1143,
      "Fran": 1144,
      "overnment": 1145,
      "allow": 1146,
      "che": 1147,
      "prom": 1148,
      "system": 1149,
      "11": 1150,
      "gun": 1151,
      "since": 1152,
      "States": 1153,
      "Oc": 1154,
      "species": 1155,
      "care": 1156,
      "public": 1157,
      "tal": 1158,
      "south": 1159,
      "received": 1160,
      "oman": 1161,
      "def": 1162,
      "ists": 1163,
      "major": 1164,
      "0s": 1165,
      "ask": 1166,
      "took": 1167,
      "Wil": 1168,
      "cour": 1169,
      "gy": 1170,
      "Jan": 1171,
      "ately": 1172,
      "soci": 1173,
      "even": 1174,
      "cut": 1175,
      "ock": 1176,
      "ined": 1177,
      "child": 1178,
      "partic": 1179,
      "South": 1180,
      "won": 1181,
      "25": 1182,
      "ages": 1183,
      "batt": 1184,
      "ained": 1185,
      "Christ": 1186,
      "King": 1187,
      "appro": 1188,
      "fied": 1189,
      "wards": 1190,
      "described": 1191,
      "cast": 1192,
      "tober": 1193,
      "October": 1194,
      "world": 1195,
      "place": 1196,
      "ime": 1197,
      "Man": 1198,
      "just": 1199,
      "moved": 1200,
      "Gu": 1201,
      "mb": 1202,
      "ony": 1203,
      "giv": 1204,
      "Pl": 1205,
      "incre": 1206,
      "ilt": 1207,
      "ham": 1208,
      "ropical": 1209,
      "Ac": 1210,
      "ork": 1211,
      "constru": 1212,
      "Me": 1213,
      "gre": 1214,
      "ris": 1215,
      "organ": 1216,
      "liam": 1217,
      "vious": 1218,
      "wrote": 1219,
      "ional": 1220,
      "ains": 1221,
      "July": 1222,
      "York": 1223,
      "band": 1224,
      "kill": 1225,
      "ina": 1226,
      "named": 1227,
      "town": 1228,
      "ude": 1229,
      "gin": 1230,
      "sequ": 1231,
      "bre": 1232,
      "ards": 1233,
      "differ": 1234,
      "Gr": 1235,
      "During": 1236,
      "much": 1237,
      "pri": 1238,
      "camp": 1239,
      "water": 1240,
      "due": 1241,
      "Can": 1242,
      "lie": 1243,
      "Apr": 1244,
      "ute": 1245,
      "posed": 1246,
      "single": 1247,
      "April": 1248,
      "Mon": 1249,
      "aft": 1250,
      "...": 1251,
      "death": 1252,
      "power": 1253,
      "Euro": 1254,
      "another": 1255,
      "version": 1256,
      "included": 1257,
      "hand": 1258,
      "ys": 1259,
      "ility": 1260,
      "195": 1261,
      "order": 1262,
      "tempt": 1263,
      "ature": 1264,
      "German": 1265,
      "ston": 1266,
      "January": 1267,
      "short": 1268,
      "West": 1269,
      "ets": 1270,
      "Par": 1271,
      "within": 1272,
      "estab": 1273,
      "event": 1274,
      "England": 1275,
      "stud": 1276,
      "gener": 1277,
      "ants": 1278,
      "ships": 1279,
      "udi": 1280,
      "ored": 1281,
      "left": 1282,
      "built": 1283,
      "Ma": 1284,
      "based": 1285,
      "fur": 1286,
      "although": 1287,
      "sed": 1288,
      "attempt": 1289,
      "ling": 1290,
      "person": 1291,
      "round": 1292,
      "family": 1293,
      "right": 1294,
      "ery": 1295,
      "hal": 1296,
      "third": 1297,
      "claim": 1298,
      "ement": 1299,
      "games": 1300,
      "home": 1301,
      "Cl": 1302,
      "March": 1303,
      "ital": 1304,
      "All": 1305,
      "sent": 1306,
      "akes": 1307,
      "pect": 1308,
      "pen": 1309,
      "previous": 1310,
      "fall": 1311,
      "vember": 1312,
      "November": 1313,
      "review": 1314,
      "tra": 1315,
      "period": 1316,
      "best": 1317,
      "193": 1318,
      "issu": 1319,
      "school": 1320,
      "story": 1321,
      "cas": 1322,
      "Europe": 1323,
      "hum": 1324,
      "His": 1325,
      "government": 1326,
      "turn": 1327,
      "ats": 1328,
      "expl": 1329,
      "adv": 1330,
      "cember": 1331,
      "December": 1332,
      "make": 1333,
      "ove": 1334,
      "ilar": 1335,
      "those": 1336,
      "jo": 1337,
      "ting": 1338,
      "roy": 1339,
      "urric": 1340,
      "dest": 1341,
      "avy": 1342,
      "By": 1343,
      "There": 1344,
      "original": 1345,
      "Ste": 1346,
      "using": 1347,
      "storm": 1348,
      "City": 1349,
      "ster": 1350,
      "And": 1351,
      "thing": 1352,
      "chan": 1353,
      "ulation": 1354,
      "ism": 1355,
      "company": 1356,
      "ext": 1357,
      "command": 1358,
      "Ge": 1359,
      "rown": 1360,
      "month": 1361,
      "real": 1362,
      "When": 1363,
      "fact": 1364,
      "ially": 1365,
      "king": 1366,
      "ense": 1367,
      "ner": 1368,
      "itary": 1369,
      "match": 1370,
      "ons": 1371,
      "2009": 1372,
      "auth": 1373,
      "flu": 1374,
      "ety": 1375,
      "rench": 1376,
      "video": 1377,
      "National": 1378,
      "ral": 1379,
      "arm": 1380,
      "club": 1381,
      "2008": 1382,
      "2010": 1383,
      "Sc": 1384,
      "trad": 1385,
      "oung": 1386,
      "fac": 1387,
      "role": 1388,
      "colle": 1389,
      "cor": 1390,
      "church": 1391,
      "Indi": 1392,
      "ivision": 1393,
      "gram": 1394,
      "So": 1395,
      "We": 1396,
      "ref": 1397,
      "River": 1398,
      "ences": 1399,
      "forman": 1400,
      "still": 1401,
      "move": 1402,
      "cus": 1403,
      "player": 1404,
      "Mc": 1405,
      "ically": 1406,
      "possi": 1407,
      "stit": 1408,
      "bro": 1409,
      "iversity": 1410,
      "addition": 1411,
      "riend": 1412,
      "Li": 1413,
      "came": 1414,
      "ix": 1415,
      "ently": 1416,
      "ched": 1417,
      "class": 1418,
      "local": 1419,
      "ium": 1420,
      "often": 1421,
      "history": 1422,
      "24": 1423,
      "ls": 1424,
      "ali": 1425,
      "former": 1426,
      "site": 1427,
      "half": 1428,
      "urricane": 1429,
      "26": 1430,
      "lim": 1431,
      "stri": 1432,
      "100": 1433,
      "mag": 1434,
      "tract": 1435,
      "aken": 1436,
      "continued": 1437,
      "21": 1438,
      "ians": 1439,
      "draw": 1440,
      "Sp": 1441,
      "23": 1442,
      "next": 1443,
      "2007": 1444,
      "ggest": 1445,
      "considered": 1446,
      "Ad": 1447,
      "rodu": 1448,
      "effect": 1449,
      "28": 1450,
      "suggest": 1451,
      "ae": 1452,
      "put": 1453,
      "say": 1454,
      "recorded": 1455,
      "French": 1456,
      "ze": 1457,
      "refer": 1458,
      "few": 1459,
      "que": 1460,
      "quar": 1461,
      "published": 1462,
      "similar": 1463,
      "career": 1464,
      "One": 1465,
      "mid": 1466,
      "Dy": 1467,
      "body": 1468,
      "mar": 1469,
      "English": 1470,
      "held": 1471,
      "performan": 1472,
      "placed": 1473,
      "take": 1474,
      "init": 1475,
      "import": 1476,
      "production": 1477,
      "Gen": 1478,
      "ending": 1479,
      "ah": 1480,
      "mp": 1481,
      "Pr": 1482,
      "elt": 1483,
      "Batt": 1484,
      "ared": 1485,
      "different": 1486,
      "Tr": 1487,
      "vo": 1488,
      "ribut": 1489,
      "ution": 1490,
      "chang": 1491,
      "ush": 1492,
      "Or": 1493,
      "mand": 1494,
      "idge": 1495,
      "Ear": 1496,
      "wind": 1497,
      "you": 1498,
      "imes": 1499,
      "larg": 1500,
      "without": 1501,
      "commun": 1502,
      "songs": 1503,
      "den": 1504,
      "ampion": 1505,
      "Pe": 1506,
      "With": 1507,
      "ars": 1508,
      "aining": 1509,
      "written": 1510,
      "ico": 1511,
      "among": 1512,
      "sty": 1513,
      "level": 1514,
      "ler": 1515,
      "strong": 1516,
      "State": 1517,
      "polit": 1518,
      "lor": 1519,
      "force": 1520,
      "seven": 1521,
      "fort": 1522,
      "bert": 1523,
      "house": 1524,
      "action": 1525,
      "every": 1526,
      "tro": 1527,
      "ided": 1528,
      "Inter": 1529,
      "Division": 1530,
      "vil": 1531,
      "2011": 1532,
      "release": 1533,
      "white": 1534,
      "struct": 1535,
      "further": 1536,
      "tropical": 1537,
      "iment": 1538,
      "become": 1539,
      "days": 1540,
      "2006": 1541,
      "According": 1542,
      "Although": 1543,
      "Church": 1544,
      "stead": 1545,
      "however": 1546,
      "find": 1547,
      "22": 1548,
      "Canad": 1549,
      "Bar": 1550,
      "ged": 1551,
      "aster": 1552,
      "fr": 1553,
      "pite": 1554,
      "Mus": 1555,
      "itar": 1556,
      "Te": 1557,
      "title": 1558,
      "author": 1559,
      "studi": 1560,
      "ops": 1561,
      "craft": 1562,
      "particular": 1563,
      "ness": 1564,
      "military": 1565,
      "respon": 1566,
      "Ser": 1567,
      "bird": 1568,
      "how": 1569,
      "foot": 1570,
      "augh": 1571,
      "graph": 1572,
      "27": 1573,
      "members": 1574,
      "Roman": 1575,
      "flo": 1576,
      "Char": 1577,
      "League": 1578,
      "popular": 1579,
      "Per": 1580,
      "Port": 1581,
      "gn": 1582,
      "wide": 1583,
      "mm": 1584,
      "scen": 1585,
      "went": 1586,
      "Song": 1587,
      "hold": 1588,
      "app": 1589,
      "bruary": 1590,
      "histor": 1591,
      "February": 1592,
      "ai": 1593,
      "lost": 1594,
      "times": 1595,
      "mission": 1596,
      "iter": 1597,
      "direct": 1598,
      "bar": 1599,
      "gave": 1600,
      "sit": 1601,
      "ively": 1602,
      "ittle": 1603,
      "produced": 1604,
      "successful": 1605,
      "fan": 1606,
      "tele": 1607,
      "reported": 1608,
      "Mis": 1609,
      "Dylan": 1610,
      "friend": 1611,
      "provid": 1612,
      "Geor": 1613,
      "served": 1614,
      "ology": 1615,
      "clear": 1616,
      "prof": 1617,
      "2012": 1618,
      "fire": 1619,
      "els": 1620,
      "mod": 1621,
      "capt": 1622,
      "total": 1623,
      "divid": 1624,
      "common": 1625,
      "Old": 1626,
      "Po": 1627,
      "Park": 1628,
      "cult": 1629,
      "test": 1630,
      "search": 1631,
      "wood": 1632,
      "covered": 1633,
      "children": 1634,
      "omin": 1635,
      "night": 1636,
      "forces": 1637,
      "decl": 1638,
      "given": 1639,
      "enter": 1640,
      "ps": 1641,
      "seen": 1642,
      "ford": 1643,
      "Jap": 1644,
      "ator": 1645,
      "stated": 1646,
      "Japan": 1647,
      "sure": 1648,
      "ception": 1649,
      "Min": 1650,
      "having": 1651,
      "include": 1652,
      "critic": 1653,
      "tour": 1654,
      "depend": 1655,
      "face": 1656,
      "fail": 1657,
      "see": 1658,
      "great": 1659,
      "indu": 1660,
      "invol": 1661,
      "ctions": 1662,
      "influ": 1663,
      "alion": 1664,
      "close": 1665,
      "away": 1666,
      "want": 1667,
      "represent": 1668,
      "Count": 1669,
      "anno": 1670,
      "Afric": 1671,
      "To": 1672,
      "young": 1673,
      "compet": 1674,
      "country": 1675,
      "bas": 1676,
      "signific": 1677,
      "manag": 1678,
      "Comp": 1679,
      "Pol": 1680,
      "making": 1681,
      "stre": 1682,
      "omen": 1683,
      "2013": 1684,
      "Sim": 1685,
      "net": 1686,
      "ices": 1687,
      "ney": 1688,
      "fron": 1689,
      "control": 1690,
      "itch": 1691,
      "Des": 1692,
      "rad": 1693,
      "eder": 1694,
      "chn": 1695,
      "river": 1696,
      "program": 1697,
      "look": 1698,
      "occur": 1699,
      "father": 1700,
      "never": 1701,
      "comb": 1702,
      "ploy": 1703,
      "General": 1704,
      "aur": 1705,
      "lished": 1706,
      "vict": 1707,
      "should": 1708,
      "project": 1709,
      "While": 1710,
      "construction": 1711,
      "post": 1712,
      "writing": 1713,
      "gl": 1714,
      "plan": 1715,
      "ods": 1716,
      "returned": 1717,
      "ned": 1718,
      "ister": 1719,
      "University": 1720,
      "change": 1721,
      "Tw": 1722,
      "bl": 1723,
      "aren": 1724,
      "mix": 1725,
      "fem": 1726,
      "xim": 1727,
      "developed": 1728,
      "established": 1729,
      "ither": 1730,
      "Scot": 1731,
      "29": 1732,
      "Ph": 1733,
      "ides": 1734,
      "reached": 1735,
      "ax": 1736,
      "too": 1737,
      "chart": 1738,
      "190": 1739,
      "These": 1740,
      "America": 1741,
      "omet": 1742,
      "belie": 1743,
      "ensive": 1744,
      "cing": 1745,
      "island": 1746,
      "sound": 1747,
      "activ": 1748,
      "Dav": 1749,
      "Ire": 1750,
      "population": 1751,
      "announ": 1752,
      "BC": 1753,
      "equ": 1754,
      "law": 1755,
      "works": 1756,
      "ways": 1757,
      "Ha": 1758,
      "Jack": 1759,
      "hour": 1760,
      "ama": 1761,
      "coming": 1762,
      "earli": 1763,
      "novel": 1764,
      "died": 1765,
      "word": 1766,
      "ably": 1767,
      "antic": 1768,
      "noted": 1769,
      "introdu": 1770,
      "Ireland": 1771,
      "40": 1772,
      "Air": 1773,
      "bur": 1774,
      "tail": 1775,
      "igade": 1776,
      "tell": 1777,
      "range": 1778,
      "ges": 1779,
      "across": 1780,
      "thought": 1781,
      "throughout": 1782,
      "building": 1783,
      "blo": 1784,
      "cou": 1785,
      "agre": 1786,
      "itions": 1787,
      "ondon": 1788,
      "Vi": 1789,
      "Pro": 1790,
      "London": 1791,
      "ances": 1792,
      "sum": 1793,
      "gar": 1794,
      "exp": 1795,
      "himself": 1796,
      "full": 1797,
      "felt": 1798,
      "development": 1799,
      "William": 1800,
      "teen": 1801,
      "East": 1802,
      "atic": 1803,
      "board": 1804,
      "ument": 1805,
      "performed": 1806,
      "grow": 1807,
      "complete": 1808,
      "Mich": 1809,
      "rap": 1810,
      "important": 1811,
      "significant": 1812,
      "rent": 1813,
      "Australia": 1814,
      "aint": 1815,
      "typ": 1816,
      "pur": 1817,
      "ades": 1818,
      "eight": 1819,
      "Atl": 1820,
      "human": 1821,
      "destroy": 1822,
      "miles": 1823,
      "room": 1824,
      "live": 1825,
      "television": 1826,
      "Black": 1827,
      "interest": 1828,
      "various": 1829,
      "style": 1830,
      "fle": 1831,
      "areas": 1832,
      "black": 1833,
      "key": 1834,
      "sk": 1835,
      "sett": 1836,
      "Ed": 1837,
      "appeared": 1838,
      "Rich": 1839,
      "bus": 1840,
      "others": 1841,
      "relation": 1842,
      "bor": 1843,
      "hip": 1844,
      "does": 1845,
      "official": 1846,
      "aign": 1847,
      "del": 1848,
      "events": 1849,
      "marri": 1850,
      "need": 1851,
      "Har": 1852,
      "da": 1853,
      "suf": 1854,
      "Road": 1855,
      "Reg": 1856,
      "medi": 1857,
      "ior": 1858,
      "amb": 1859,
      "players": 1860,
      "started": 1861,
      "James": 1862,
      "nd": 1863,
      "ones": 1864,
      "idence": 1865,
      "Roy": 1866,
      "modern": 1867,
      "hind": 1868,
      "gether": 1869,
      "pra": 1870,
      "tion": 1871,
      "ots": 1872,
      "appoint": 1873,
      "experi": 1874,
      "feet": 1875,
      "ological": 1876,
      "High": 1877,
      "ified": 1878,
      "itive": 1879,
      "poem": 1880,
      "aver": 1881,
      "cil": 1882,
      "ope": 1883,
      "created": 1884,
      "performance": 1885,
      "County": 1886,
      "front": 1887,
      "nu": 1888,
      "prim": 1889,
      "located": 1890,
      "Wal": 1891,
      "caused": 1892,
      "aff": 1893,
      "ives": 1894,
      "cell": 1895,
      "techn": 1896,
      "Ke": 1897,
      "fun": 1898,
      "fig": 1899,
      "189": 1900,
      "Mount": 1901,
      "60": 1902,
      "You": 1903,
      "vill": 1904,
      "alth": 1905,
      "sex": 1906,
      "mother": 1907,
      "mount": 1908,
      "ago": 1909,
      "abor": 1910,
      "rick": 1911,
      "Ber": 1912,
      "stant": 1913,
      "coast": 1914,
      "2004": 1915,
      "Pal": 1916,
      "2005": 1917,
      "formation": 1918,
      "pression": 1919,
      "good": 1920,
      "TV": 1921,
      "na": 1922,
      "acy": 1923,
      "ample": 1924,
      "political": 1925,
      "Cor": 1926,
      "Ho": 1927,
      "rock": 1928,
      "characters": 1929,
      "mit": 1930,
      "theast": 1931,
      "relig": 1932,
      "Mag": 1933,
      "Sci": 1934,
      "bes": 1935,
      "Ne": 1936,
      "nal": 1937,
      "taken": 1938,
      "rul": 1939,
      "rew": 1940,
      "begin": 1941,
      "mun": 1942,
      "iness": 1943,
      "born": 1944,
      "core": 1945,
      "cru": 1946,
      "Su": 1947,
      "Town": 1948,
      "goal": 1949,
      "Mont": 1950,
      "burn": 1951,
      "Care": 1952,
      "fight": 1953,
      "vic": 1954,
      "once": 1955,
      "vert": 1956,
      "aves": 1957,
      "grad": 1958,
      "scri": 1959,
      "far": 1960,
      "nia": 1961,
      "pred": 1962,
      "remained": 1963,
      "fav": 1964,
      "ring": 1965,
      "ination": 1966,
      "ison": 1967,
      "iting": 1968,
      "completed": 1969,
      "battle": 1970,
      "killed": 1971,
      "Phil": 1972,
      "yard": 1973,
      "quad": 1974,
      "ficult": 1975,
      "scored": 1976,
      "region": 1977,
      "difficult": 1978,
      "Kingdom": 1979,
      "Hist": 1980,
      "Of": 1981,
      "ible": 1982,
      "mor": 1983,
      "sess": 1984,
      "offer": 1985,
      "arded": 1986,
      "guns": 1987,
      "inv": 1988,
      "meet": 1989,
      "Island": 1990,
      "Australian": 1991,
      "campaign": 1992,
      "tradition": 1993,
      "announced": 1994,
      "Feder": 1995,
      "van": 1996,
      "debut": 1997,
      "ublic": 1998,
      "Music": 1999,
      "ked": 2000,
      "omb": 2001,
      "Bl": 2002,
      "ks": 2003,
      "anim": 2004,
      "stars": 2005,
      "Cup": 2006,
      "host": 2007,
      "Company": 2008,
      "Sy": 2009,
      "little": 2010,
      "ising": 2011,
      "process": 2012,
      "peak": 2013,
      "exist": 2014,
      "added": 2015,
      "instead": 2016,
      "help": 2017,
      "Som": 2018,
      "lines": 2019,
      "names": 2020,
      "stat": 2021,
      "asing": 2022,
      "Pa": 2023,
      "ael": 2024,
      "cient": 2025,
      "possible": 2026,
      "rought": 2027,
      "least": 2028,
      "conne": 2029,
      "cogn": 2030,
      "followed": 2031,
      "Ham": 2032,
      "redu": 2033,
      "saw": 2034,
      "entire": 2035,
      "bet": 2036,
      "ption": 2037,
      "know": 2038,
      "member": 2039,
      "Ex": 2040,
      "aid": 2041,
      "cause": 2042,
      "ories": 2043,
      "together": 2044,
      "originally": 2045,
      "months": 2046,
      "ality": 2047,
      "wife": 2048,
      "comment": 2049,
      "regular": 2050,
      "Army": 2051,
      "ues": 2052,
      "southern": 2053,
      "David": 2054,
      "Some": 2055,
      "rain": 2056,
      "resident": 2057,
      "loss": 2058,
      "reek": 2059,
      "Ang": 2060,
      "Grand": 2061,
      "study": 2062,
      "hurricane": 2063,
      "ug": 2064,
      "enced": 2065,
      "cir": 2066,
      "tar": 2067,
      "women": 2068,
      "associ": 2069,
      "press": 2070,
      "era": 2071,
      "eastern": 2072,
      "France": 2073,
      "Bill": 2074,
      "ape": 2075,
      "aving": 2076,
      "opened": 2077,
      "mass": 2078,
      "lect": 2079,
      "Champion": 2080,
      "2003": 2081,
      "critics": 2082,
      "stone": 2083,
      "playing": 2084,
      "eventually": 2085,
      "consist": 2086,
      "features": 2087,
      "Other": 2088,
      "utes": 2089,
      "2015": 2090,
      "base": 2091,
      "broad": 2092,
      "pair": 2093,
      "vest": 2094,
      "fif": 2095,
      "Love": 2096,
      "carri": 2097,
      "dri": 2098,
      "hor": 2099,
      "recogn": 2100,
      "route": 2101,
      "fourth": 2102,
      "hab": 2103,
      "sport": 2104,
      "ability": 2105,
      "Two": 2106,
      "got": 2107,
      "voc": 2108,
      "forced": 2109,
      "decided": 2110,
      "sl": 2111,
      "ought": 2112,
      "accept": 2113,
      "ota": 2114,
      "estim": 2115,
      "damage": 2116,
      "profess": 2117,
      "Fo": 2118,
      "non": 2119,
      "aly": 2120,
      "heavy": 2121,
      "aper": 2122,
      "points": 2123,
      "birds": 2124,
      "either": 2125,
      "wall": 2126,
      "Battalion": 2127,
      "termin": 2128,
      "proble": 2129,
      "tempor": 2130,
      "elect": 2131,
      "Ab": 2132,
      "behind": 2133,
      "finished": 2134,
      "commer": 2135,
      "leading": 2136,
      "cert": 2137,
      "break": 2138,
      "cop": 2139,
      "semb": 2140,
      "ament": 2141,
      "ull": 2142,
      "azine": 2143,
      "believed": 2144,
      "Carey": 2145,
      "sold": 2146,
      "separ": 2147,
      "forms": 2148,
      "speci": 2149,
      "writer": 2150,
      "current": 2151,
      "Mi": 2152,
      "ique": 2153,
      "nat": 2154,
      "tre": 2155,
      "condom": 2156,
      "individ": 2157,
      "liament": 2158,
      "claimed": 2159,
      "inc": 2160,
      "impro": 2161,
      "El": 2162,
      "uses": 2163,
      "appearance": 2164,
      "Fin": 2165,
      "Mor": 2166,
      "employ": 2167,
      "example": 2168,
      "special": 2169,
      "fantry": 2170,
      "Royal": 2171,
      "don": 2172,
      "almost": 2173,
      "188": 2174,
      "uck": 2175,
      "sts": 2176,
      "compan": 2177,
      "Mex": 2178,
      "vir": 2179,
      "yards": 2180,
      "ization": 2181,
      "directed": 2182,
      "European": 2183,
      "uc": 2184,
      "ara": 2185,
      "respect": 2186,
      "langu": 2187,
      "service": 2188,
      "generally": 2189,
      "Federer": 2190,
      "mater": 2191,
      "pie": 2192,
      "towards": 2193,
      "vier": 2194,
      "igned": 2195,
      "Robert": 2196,
      "elements": 2197,
      "western": 2198,
      "odes": 2199,
      "2nd": 2200,
      "brought": 2201,
      "case": 2202,
      "dou": 2203,
      "sour": 2204,
      "lower": 2205,
      "Brigade": 2206,
      "weeks": 2207,
      "cup": 2208,
      "mph": 2209,
      "concl": 2210,
      "ends": 2211,
      "upon": 2212,
      "International": 2213,
      "Ev": 2214,
      "Hen": 2215,
      "Oli": 2216,
      "Wales": 2217,
      "mot": 2218,
      "illa": 2219,
      "Stre": 2220,
      "lled": 2221,
      "central": 2222,
      "laun": 2223,
      "31": 2224,
      "icated": 2225,
      "bel": 2226,
      "ceed": 2227,
      "stry": 2228,
      "bodi": 2229,
      "highway": 2230,
      "featured": 2231,
      "35": 2232,
      "stage": 2233,
      "aircraft": 2234,
      "ready": 2235,
      "Viet": 2236,
      "Flor": 2237,
      "term": 2238,
      "assist": 2239,
      "director": 2240,
      "God": 2241,
      "ida": 2242,
      "crew": 2243,
      "mean": 2244,
      "Du": 2245,
      "dle": 2246,
      "via": 2247,
      "general": 2248,
      "White": 2249,
      "survi": 2250,
      "Part": 2251,
      "research": 2252,
      "amo": 2253,
      "defe": 2254,
      "vers": 2255,
      "contract": 2256,
      "approach": 2257,
      "Game": 2258,
      "SA": 2259,
      "ply": 2260,
      "sw": 2261,
      "provided": 2262,
      "George": 2263,
      "Day": 2264,
      "ordan": 2265,
      "meas": 2266,
      "Act": 2267,
      "ey": 2268,
      "fund": 2269,
      "ier": 2270,
      "compl": 2271,
      "cret": 2272,
      "graphy": 2273,
      "Play": 2274,
      "Val": 2275,
      "Follow": 2276,
      "Jordan": 2277,
      "fly": 2278,
      "lear": 2279,
      "oted": 2280,
      "parts": 2281,
      "Hero": 2282,
      "earlier": 2283,
      "From": 2284,
      "free": 2285,
      "reve": 2286,
      "Thom": 2287,
      "allowed": 2288,
      "Cent": 2289,
      "hon": 2290,
      "2014": 2291,
      "rather": 2292,
      "female": 2293,
      "Atlantic": 2294,
      "House": 2295,
      "nar": 2296,
      "pat": 2297,
      "ration": 2298,
      "ington": 2299,
      "sea": 2300,
      "ino": 2301,
      "opening": 2302,
      "largest": 2303,
      "victory": 2304,
      "Following": 2305,
      "Jew": 2306,
      "reason": 2307,
      "heel": 2308,
      "worked": 2309,
      "subsequ": 2310,
      "useum": 2311,
      "certain": 2312,
      "operations": 2313,
      "Christian": 2314,
      "particularly": 2315,
      "manager": 2316,
      "Dr": 2317,
      "Mad": 2318,
      "Rep": 2319,
      "19th": 2320,
      "cially": 2321,
      "travel": 2322,
      "troops": 2323,
      "Fir": 2324,
      "Mary": 2325,
      "audi": 2326,
      "spir": 2327,
      "working": 2328,
      "rail": 2329,
      "III": 2330,
      "joined": 2331,
      "wanted": 2332,
      "section": 2333,
      "urb": 2334,
      "condu": 2335,
      "Red": 2336,
      "evidence": 2337,
      "standing": 2338,
      "San": 2339,
      "reli": 2340,
      "northern": 2341,
      "Command": 2342,
      "Florida": 2343,
      "Paul": 2344,
      "70": 2345,
      "Ir": 2346,
      "Rock": 2347,
      "leng": 2348,
      "nine": 2349,
      "hest": 2350,
      "anti": 2351,
      "outside": 2352,
      "engine": 2353,
      "Street": 2354,
      "stren": 2355,
      "love": 2356,
      "saying": 2357,
      "Med": 2358,
      "cross": 2359,
      "ission": 2360,
      "ellow": 2361,
      "pract": 2362,
      "fre": 2363,
      "whom": 2364,
      "emy": 2365,
      "issue": 2366,
      "hours": 2367,
      "ators": 2368,
      "ential": 2369,
      "conom": 2370,
      "coll": 2371,
      "AA": 2372,
      "Gre": 2373,
      "har": 2374,
      "ata": 2375,
      "account": 2376,
      "2001": 2377,
      "avail": 2378,
      "185": 2379,
      "souri": 2380,
      "Missouri": 2381,
      "Cr": 2382,
      "streng": 2383,
      "38": 2384,
      "500": 2385,
      "Bra": 2386,
      "atin": 2387,
      "deal": 2388,
      "territ": 2389,
      "length": 2390,
      "My": 2391,
      "Sw": 2392,
      "mach": 2393,
      "nomin": 2394,
      "tel": 2395,
      "court": 2396,
      "Tech": 2397,
      "Gal": 2398,
      "Lo": 2399,
      "inch": 2400,
      "stay": 2401,
      "tee": 2402,
      "plann": 2403,
      "material": 2404,
      "gold": 2405,
      "ping": 2406,
      "poor": 2407,
      "cycl": 2408,
      "designed": 2409,
      "Bay": 2410,
      "Cro": 2411,
      "seem": 2412,
      "prob": 2413,
      "pool": 2414,
      "minist": 2415,
      "quarter": 2416,
      "think": 2417,
      "argu": 2418,
      "soon": 2419,
      "praised": 2420,
      "Don": 2421,
      "Mark": 2422,
      "ger": 2423,
      "nes": 2424,
      "ishing": 2425,
      "quest": 2426,
      "remains": 2427,
      "Indian": 2428,
      "football": 2429,
      "First": 2430,
      "Best": 2431,
      "ded": 2432,
      "drop": 2433,
      "aland": 2434,
      "counter": 2435,
      "suffer": 2436,
      "amount": 2437,
      "Ze": 2438,
      "bill": 2439,
      "date": 2440,
      "hous": 2441,
      "ties": 2442,
      "station": 2443,
      "flight": 2444,
      "winds": 2445,
      "Michael": 2446,
      "Ros": 2447,
      "phas": 2448,
      "sho": 2449,
      "quick": 2450,
      "ival": 2451,
      "discus": 2452,
      "type": 2453,
      "increased": 2454,
      "Pri": 2455,
      "cul": 2456,
      "past": 2457,
      "scre": 2458,
      "viol": 2459,
      "Coun": 2460,
      "previously": 2461,
      "appointed": 2462,
      "45": 2463,
      "Bus": 2464,
      "Egy": 2465,
      "dol": 2466,
      "inj": 2467,
      "replaced": 2468,
      "units": 2469,
      "ica": 2470,
      "acc": 2471,
      "deli": 2472,
      "above": 2473,
      "pressed": 2474,
      "Cap": 2475,
      "ecut": 2476,
      "Richard": 2477,
      "Dep": 2478,
      "erous": 2479,
      "lands": 2480,
      "ranch": 2481,
      "maintain": 2482,
      "passed": 2483,
      "relationship": 2484,
      "Am": 2485,
      "spo": 2486,
      "ened": 2487,
      "alter": 2488,
      "ids": 2489,
      "clos": 2490,
      "civil": 2491,
      "Despite": 2492,
      "business": 2493,
      "pain": 2494,
      "rid": 2495,
      "invest": 2496,
      "aries": 2497,
      "ighest": 2498,
      "interview": 2499,
      "signed": 2500,
      "flood": 2501,
      "hib": 2502,
      "taking": 2503,
      "threat": 2504,
      "achie": 2505,
      "going": 2506,
      "ributed": 2507,
      "Henry": 2508,
      "Hill": 2509,
      "186": 2510,
      "osaur": 2511,
      "Canada": 2512,
      "quadron": 2513,
      "estimated": 2514,
      "specific": 2515,
      "FA": 2516,
      "Que": 2517,
      "ault": 2518,
      "ff": 2519,
      "ik": 2520,
      "race": 2521,
      "vice": 2522,
      "rang": 2523,
      "available": 2524,
      "highest": 2525,
      "native": 2526,
      "somet": 2527,
      "tor": 2528,
      "uel": 2529,
      "structure": 2530,
      "Japanese": 2531,
      "stop": 2532,
      "sell": 2533,
      "ples": 2534,
      "Carol": 2535,
      "situ": 2536,
      "Oldham": 2537,
      "involved": 2538,
      "President": 2539,
      "Times": 2540,
      "Ver": 2541,
      "must": 2542,
      "treat": 2543,
      "comes": 2544,
      "suggested": 2545,
      "mixed": 2546,
      "Tor": 2547,
      "Vir": 2548,
      "lay": 2549,
      "shot": 2550,
      "establish": 2551,
      "turned": 2552,
      "introduced": 2553,
      "Ap": 2554,
      "Brown": 2555,
      "inst": 2556,
      "recent": 2557,
      "usually": 2558,
      "goals": 2559,
      "likely": 2560,
      "scene": 2561,
      "script": 2562,
      "Olivier": 2563,
      "itself": 2564,
      "league": 2565,
      "ention": 2566,
      "proper": 2567,
      "Later": 2568,
      "cern": 2569,
      "oney": 2570,
      "actions": 2571,
      "Chin": 2572,
      "bound": 2573,
      "Most": 2574,
      "transport": 2575,
      "India": 2576,
      "average": 2577,
      "Mexico": 2578,
      "give": 2579,
      "sis": 2580,
      "ana": 2581,
      "tolo": 2582,
      "Arab": 2583,
      "Egypt": 2584,
      "Rac": 2585,
      "School": 2586,
      "lam": 2587,
      "ald": 2588,
      "olic": 2589,
      "limited": 2590,
      "90": 2591,
      "lin": 2592,
      "told": 2593,
      "super": 2594,
      "sia": 2595,
      "whose": 2596,
      "recording": 2597,
      "village": 2598,
      "Cam": 2599,
      "Cong": 2600,
      "bri": 2601,
      "ita": 2602,
      "transfer": 2603,
      "brother": 2604,
      "responsi": 2605,
      "Thomas": 2606,
      "bow": 2607,
      "ming": 2608,
      "oring": 2609,
      "size": 2610,
      "prepar": 2611,
      "possib": 2612,
      "ximately": 2613,
      "religious": 2614,
      "Irish": 2615,
      "hit": 2616,
      "vin": 2617,
      "ordered": 2618,
      "occup": 2619,
      "block": 2620,
      "temporary": 2621,
      "But": 2622,
      "Pac": 2623,
      "hom": 2624,
      "pond": 2625,
      "bell": 2626,
      "187": 2627,
      "Britain": 2628,
      "shows": 2629,
      "damaged": 2630,
      "thus": 2631,
      "commission": 2632,
      "increasing": 2633,
      "Republic": 2634,
      "80": 2635,
      "Hurricane": 2636,
      "NY": 2637,
      "Str": 2638,
      "Wheel": 2639,
      "ient": 2640,
      "ky": 2641,
      "mult": 2642,
      "ray": 2643,
      "educ": 2644,
      "touch": 2645,
      "icted": 2646,
      "istic": 2647,
      "marked": 2648,
      "Mac": 2649,
      "Many": 2650,
      "thedr": 2651,
      "irth": 2652,
      "space": 2653,
      "despite": 2654,
      "Rose": 2655,
      "nearly": 2656,
      "Guitar": 2657,
      "changes": 2658,
      "Hel": 2659,
      "Hall": 2660,
      "watch": 2661,
      "beli": 2662,
      "forward": 2663,
      "clo": 2664,
      "social": 2665,
      "feel": 2666,
      "consider": 2667,
      "community": 2668,
      "Zealand": 2669,
      "Rou": 2670,
      "Sun": 2671,
      "aut": 2672,
      "econom": 2673,
      "mal": 2674,
      "independ": 2675,
      "defin": 2676,
      "surround": 2677,
      "Jer": 2678,
      "daugh": 2679,
      "err": 2680,
      "lected": 2681,
      "Union": 2682,
      "international": 2683,
      "object": 2684,
      "ronic": 2685,
      "listed": 2686,
      "initially": 2687,
      "commercial": 2688,
      "rate": 2689,
      "already": 2690,
      "aces": 2691,
      "immedi": 2692,
      "cts": 2693,
      "usion": 2694,
      "That": 2695,
      "asked": 2696,
      "Peter": 2697,
      "hard": 2698,
      "might": 2699,
      "chap": 2700,
      "detail": 2701,
      "depression": 2702,
      "archae": 2703,
      "anna": 2704,
      "winning": 2705,
      "Early": 2706,
      "failed": 2707,
      "Championship": 2708,
      "Chinese": 2709,
      "36": 2710,
      "Gold": 2711,
      "gress": 2712,
      "woman": 2713,
      "states": 2714,
      "espe": 2715,
      "according": 2716,
      "pected": 2717,
      "training": 2718,
      "related": 2719,
      "capital": 2720,
      "language": 2721,
      "probably": 2722,
      "Pacific": 2723,
      "especially": 2724,
      "Em": 2725,
      "here": 2726,
      "vate": 2727,
      "arily": 2728,
      "execut": 2729,
      "2002": 2730,
      "occas": 2731,
      "minor": 2732,
      "visit": 2733,
      "Mos": 2734,
      "fut": 2735,
      "enj": 2736,
      "ilities": 2737,
      "chol": 2738,
      "text": 2739,
      "cost": 2740,
      "commit": 2741,
      "studio": 2742,
      "natural": 2743,
      "ield": 2744,
      "liter": 2745,
      "pot": 2746,
      "coach": 2747,
      "hair": 2748,
      "spent": 2749,
      "includes": 2750,
      "arrived": 2751,
      "History": 2752,
      "Wheeler": 2753,
      "Awards": 2754,
      "Jin": 2755,
      "god": 2756,
      "enough": 2757,
      "army": 2758,
      "respond": 2759,
      "moving": 2760,
      "pho": 2761,
      "remaining": 2762,
      "particip": 2763,
      "Canadian": 2764,
      "habit": 2765,
      "thedral": 2766,
      "Cath": 2767,
      "Law": 2768,
      "Navy": 2769,
      "male": 2770,
      "arts": 2771,
      "mention": 2772,
      "center": 2773,
      "prevent": 2774,
      "sometimes": 2775,
      "UK": 2776,
      "dy": 2777,
      "doc": 2778,
      "pit": 2779,
      "atory": 2780,
      "aled": 2781,
      "ula": 2782,
      "required": 2783,
      "approximately": 2784,
      "reviews": 2785,
      "quarters": 2786,
      "Res": 2787,
      "fru": 2788,
      "hap": 2789,
      "latter": 2790,
      "nation": 2791,
      "nel": 2792,
      "slow": 2793,
      "amed": 2794,
      "dead": 2795,
      "phys": 2796,
      "positions": 2797,
      "Sing": 2798,
      "ken": 2799,
      "pan": 2800,
      "sat": 2801,
      "aters": 2802,
      "ries": 2803,
      "nest": 2804,
      "Associ": 2805,
      "tons": 2806,
      "Africa": 2807,
      "beginning": 2808,
      "urt": 2809,
      "pound": 2810,
      "perform": 2811,
      "2000": 2812,
      "running": 2813,
      "Angel": 2814,
      "Creek": 2815,
      "Film": 2816,
      "Mid": 2817,
      "lot": 2818,
      "inated": 2819,
      "entolo": 2820,
      "ateg": 2821,
      "exc": 2822,
      "notes": 2823,
      "ief": 2824,
      "decision": 2825,
      "soldi": 2826,
      "Scientolo": 2827,
      "defeated": 2828,
      "Pre": 2829,
      "bit": 2830,
      "sen": 2831,
      "yer": 2832,
      "Star": 2833,
      "Art": 2834,
      "additional": 2835,
      "Regiment": 2836,
      "Super": 2837,
      "Lu": 2838,
      "jour": 2839,
      "oid": 2840,
      "ication": 2841,
      "evol": 2842,
      "president": 2843,
      "response": 2844,
      "better": 2845,
      "Virgin": 2846,
      "Rachel": 2847,
      "Hol": 2848,
      "aring": 2849,
      "concern": 2850,
      "uded": 2851,
      "positive": 2852,
      "ference": 2853,
      "students": 2854,
      "larger": 2855,
      "Light": 2856,
      "aby": 2857,
      "whe": 2858,
      "sip": 2859,
      "supported": 2860,
      "Colle": 2861,
      "constructed": 2862,
      "magazine": 2863,
      "captured": 2864,
      "1st": 2865,
      "Award": 2866,
      "Gl": 2867,
      "Oly": 2868,
      "bot": 2869,
      "staff": 2870,
      "food": 2871,
      "pressure": 2872,
      "rics": 2873,
      "bridge": 2874,
      "police": 2875,
      "changed": 2876,
      "Scott": 2877,
      "agreed": 2878,
      "Olymp": 2879,
      "Lad": 2880,
      "cal": 2881,
      "poet": 2882,
      "active": 2883,
      "Charles": 2884,
      "fleet": 2885,
      "Rus": 2886,
      "birth": 2887,
      "score": 2888,
      "cele": 2889,
      "shown": 2890,
      "1995": 2891,
      "Billboard": 2892,
      "Hu": 2893,
      "frequ": 2894,
      "teach": 2895,
      "aven": 2896,
      "assigned": 2897,
      "plays": 2898,
      "future": 2899,
      "FI": 2900,
      "Penn": 2901,
      "pay": 2902,
      "access": 2903,
      "provide": 2904,
      "print": 2905,
      "location": 2906,
      "fifth": 2907,
      "75": 2908,
      "Tom": 2909,
      "rd": 2910,
      "acqu": 2911,
      "ctive": 2912,
      "agon": 2913,
      "uments": 2914,
      "pose": 2915,
      "aval": 2916,
      "keep": 2917,
      "discovered": 2918,
      "selves": 2919,
      "Hor": 2920,
      "appl": 2921,
      "temper": 2922,
      "syn": 2923,
      "feature": 2924,
      "broadcast": 2925,
      "Route": 2926,
      "Ri": 2927,
      "ny": 2928,
      "pitch": 2929,
      "sal": 2930,
      "iss": 2931,
      "itz": 2932,
      "ami": 2933,
      "becoming": 2934,
      "subject": 2935,
      "surface": 2936,
      "idea": 2937,
      "prior": 2938,
      "circ": 2939,
      "uals": 2940,
      "ander": 2941,
      "defeat": 2942,
      "Arch": 2943,
      "ifa": 2944,
      "rison": 2945,
      "33": 2946,
      "Cer": 2947,
      "NA": 2948,
      "cm": 2949,
      "exam": 2950,
      "box": 2951,
      "operation": 2952,
      "smaller": 2953,
      "Western": 2954,
      "Fort": 2955,
      "inci": 2956,
      "idents": 2957,
      "intended": 2958,
      "groups": 2959,
      "summer": 2960,
      "Scientology": 2961,
      "Go": 2962,
      "Great": 2963,
      "Sou": 2964,
      "paren": 2965,
      "cean": 2966,
      "exten": 2967,
      "ishop": 2968,
      "percent": 2969,
      "mostly": 2970,
      "themselves": 2971,
      "stein": 2972,
      "metres": 2973,
      "Haifa": 2974,
      "48": 2975,
      "Bro": 2976,
      "Ot": 2977,
      "Year": 2978,
      "makes": 2979,
      "orial": 2980,
      "assi": 2981,
      "champion": 2982,
      "otion": 2983,
      "lies": 2984,
      "quare": 2985,
      "2016": 2986,
      "minutes": 2987,
      "ize": 2988,
      "referred": 2989,
      "favor": 2990,
      "Bri": 2991,
      "Dan": 2992,
      "Gro": 2993,
      "Since": 2994,
      "flow": 2995,
      "hop": 2996,
      "ners": 2997,
      "edy": 2998,
      "enon": 2999
    },
    "merges": [
      "t h",
      "i n",
      "th e",
      "a n",
      "e r",
      "o n",
      "e d",
      "r e",
      "u n",
      "a t",
      "o r",
      "e n",
      "s t",
      "a l",
      "a r",
      "o f",
      "an d",
      "a s",
      "un k",
      "i s",
      "e s",
      "t o",
      "in g",
      "i t",
      "i c",
      "r o",
      "i on",
      "h e",
      "l e",
      "o u",
      "a c",
      "en t",
      "i l",
      "s e",
      "a d",
      "a m",
      "o m",
      "b e",
      "l y",
      "w as",
      "f or",
      "c h",
      "u r",
      "v e",
      "d e",
      "T he",
      "i r",
      "o l",
      "- @",
      "@ -@",
      "i m",
      "w h",
      "v er",
      "o w",
      "i g",
      "w i",
      "t er",
      "c e",
      "a y",
      "th at",
      "wi th",
      "c on",
      "at ion",
      "c t",
      "a g",
      "b y",
      "t e",
      "i d",
      "u s",
      "o t",
      "r i",
      "u l",
      "e l",
      "1 9",
      "a p",
      "re s",
      "er e",
      "a in",
      "ro m",
      "c om",
      "e t",
      "o p",
      "p l",
      "h is",
      "u t",
      "0 0",
      "m o",
      "s u",
      "al l",
      "a b",
      "a re",
      "er s",
      "u m",
      "l i",
      "the r",
      "f rom",
      "p ro",
      "p e",
      "d i",
      "I n",
      "n e",
      "s h",
      "un d",
      "c l",
      "at e",
      "p o",
      "t r",
      "ar t",
      "w ere",
      "e m",
      "s o",
      "on g",
      "ig h",
      "e x",
      "e st",
      "i es",
      "l d",
      "i st",
      "ic h",
      "il l",
      "a k",
      "a st",
      "is h",
      "ar d",
      "g h",
      "am e",
      "b er",
      "l o",
      "or t",
      "c o",
      "o d",
      "at ed",
      "it y",
      "an t",
      "p er",
      "f e",
      "i ve",
      "m ent",
      "m an",
      "ou t",
      "h ad",
      "q u",
      "es s",
      "e ar",
      "ac k",
      "on e",
      "v i",
      "t w",
      "en d",
      "wh ich",
      "or d",
      "ou r",
      "h a",
      "n ot",
      "u p",
      "a f",
      "b ut",
      "g e",
      "r it",
      "st r",
      "f o",
      "al ly",
      "in e",
      "it s",
      "s i",
      "ac t",
      "c i",
      "igh t",
      "f ir",
      "h er",
      "C h",
      "ar y",
      "2 00",
      "u d",
      "ow n",
      "d u",
      "v ed",
      "b o",
      "2 0",
      "p r",
      "a v",
      "o ver",
      "p ort",
      "the ir",
      "as s",
      "l and",
      "i p",
      "e w",
      "i an",
      "S t",
      "fir st",
      "ou s",
      "ac h",
      "ou ld",
      "e p",
      "ic al",
      "w or",
      "f ic",
      "o ther",
      "ag e",
      "al so",
      "l ow",
      "un t",
      "it ion",
      "s er",
      "t im",
      "h as",
      "for m",
      "ct ion",
      "at er",
      "u b",
      "ig n",
      "a u",
      "p t",
      "a w",
      "com p",
      "l l",
      "u re",
      "e v",
      "ha ve",
      "pl ay",
      "at t",
      "in t",
      "wh o",
      "1 8",
      "i a",
      "k e",
      "H e",
      "i v",
      "c re",
      "po s",
      "be en",
      "om e",
      "g r",
      "tw o",
      "p art",
      "n o",
      "s p",
      ". @",
      "@ .@",
      "en ce",
      "con t",
      "ur ing",
      "g u",
      "ou gh",
      "re e",
      "c ent",
      "r an",
      "p res",
      "o k",
      "th is",
      "d es",
      "or y",
      "I t",
      "i le",
      "o c",
      "m e",
      "the y",
      "y ear",
      "ad e",
      "20 1",
      "f in",
      "af ter",
      "d is",
      "com m",
      "ul t",
      "it e",
      "c ord",
      "p re",
      "an s",
      "ve l",
      "f er",
      "ro u",
      "T h",
      "f i",
      "w e",
      "in cl",
      "re n",
      ", @",
      "@ ,@",
      "A n",
      "u e",
      "el l",
      "e ver",
      "wor k",
      "o s",
      "ur n",
      "ation s",
      "ac e",
      "tim e",
      "r a",
      "m er",
      "r ic",
      "ar k",
      "in to",
      "s c",
      "mo re",
      "rou gh",
      "ab le",
      "i al",
      "U n",
      "c ed",
      "s pe",
      "mo st",
      "s ion",
      "sh ip",
      "an y",
      "an ce",
      "te m",
      "ol d",
      "s he",
      "w ould",
      "h im",
      "as on",
      "c es",
      "con d",
      "m ain",
      "g ro",
      "us ed",
      "am p",
      "r ed",
      "in ter",
      "it ed",
      "ct ed",
      "ic e",
      "as ed",
      "be c",
      "A l",
      "incl ud",
      "fo re",
      "b r",
      "th ough",
      "c k",
      "er n",
      "f l",
      "a th",
      "ing s",
      "m in",
      "ne w",
      "g an",
      "t en",
      "il d",
      "w ay",
      "m on",
      "on ly",
      "s ong",
      "ub l",
      "wh en",
      "c ess",
      "ak e",
      "i z",
      "i e",
      "A u",
      "und er",
      "a ir",
      "v is",
      "R o",
      "at es",
      "as e",
      "ent s",
      "the m",
      "al s",
      "b u",
      "d uring",
      "t s",
      "a il",
      "p h",
      "ion s",
      "ar ch",
      "re g",
      "g ame",
      "g o",
      "t ed",
      "il m",
      "in d",
      "an g",
      "e en",
      "c ol",
      "w ard",
      "l es",
      "o g",
      "E n",
      "A r",
      "ol low",
      "c an",
      "19 9",
      "ab out",
      "re t",
      "n or",
      "s on",
      "d ay",
      "ou th",
      "se ason",
      "s ome",
      "r y",
      "th an",
      "k n",
      "w rit",
      "b le",
      "wh ile",
      "ag ain",
      "l ar",
      "g en",
      "s y",
      "th ree",
      "s ing",
      "o b",
      "i f",
      "or s",
      "O n",
      "str u",
      "e f",
      "ch ar",
      "be tw",
      "betw een",
      "re cord",
      "J o",
      "n um",
      "wh ere",
      "pro du",
      "ation al",
      "th rough",
      "R e",
      "ul ar",
      "c r",
      "W h",
      "d r",
      "en s",
      "ic k",
      "l ater",
      "l ed",
      "re le",
      "C om",
      "i ver",
      "f ilm",
      "vi ew",
      "A f",
      "an n",
      "am es",
      "t y",
      "er ed",
      "f ul",
      "m ade",
      "ish ed",
      "u st",
      "m i",
      "se t",
      "s a",
      "the n",
      "con s",
      "e le",
      "re l",
      "N ew",
      "d o",
      "A s",
      "r on",
      "A mer",
      "Amer ic",
      "ur y",
      "1 0",
      "c all",
      "b um",
      "i re",
      "ro w",
      "of f",
      "m y",
      "f ollow",
      "ic t",
      "ap pe",
      "s s",
      "00 0",
      "h igh",
      "su ch",
      "se cond",
      "at ing",
      "se l",
      "m ed",
      "su b",
      "f our",
      "o se",
      "p ubl",
      "t on",
      "L e",
      "c ap",
      "T his",
      "v ing",
      "c ri",
      "w ell",
      "ter s",
      ". .",
      "al bum",
      "be fore",
      "ar i",
      "A t",
      "m a",
      "c ur",
      "m us",
      "il y",
      "ro p",
      "be ing",
      "b ack",
      "s ur",
      "j e",
      "ur ch",
      "u al",
      "year s",
      "1 6",
      "su p",
      "lo c",
      "v en",
      "the re",
      "En g",
      "ow ever",
      "N o",
      "appe ar",
      "he l",
      "ar ri",
      "man y",
      "ic s",
      "u se",
      "fo und",
      "in s",
      "n ing",
      "l ong",
      "num ber",
      "C o",
      "ser ies",
      "D e",
      "1 2",
      "ad d",
      "li ke",
      "si de",
      "at ive",
      "au se",
      "vel op",
      "m ber",
      "po int",
      "in ce",
      "re at",
      "ir d",
      "1 7",
      "N or",
      "M o",
      "bo th",
      "an e",
      "se ver",
      "p ar",
      "it ies",
      "d er",
      "1 5",
      "ch o",
      "f t",
      "includ ing",
      "ce pt",
      "ep is",
      "a ve",
      "B rit",
      "h o",
      "di re",
      "al e",
      "again st",
      "kn own",
      "ig in",
      "bec ame",
      "l ine",
      "p op",
      "u ary",
      "h n",
      "o und",
      "char ac",
      "o y",
      "fe at",
      "I I",
      "es e",
      "19 8",
      "di f",
      "d own",
      "co ver",
      "el d",
      "ment s",
      "des cri",
      "id ent",
      "Un ited",
      "e k",
      "t ain",
      "en g",
      "at ch",
      "on d",
      "te am",
      "Jo hn",
      "3 0",
      "su c",
      "de velop",
      "tr ans",
      "ol og",
      "cent ury",
      "is e",
      "Af ter",
      "per i",
      "o de",
      "sh ow",
      "or igin",
      "le ad",
      "B r",
      "c er",
      "p ed",
      "cont in",
      "ci al",
      "u res",
      "st ar",
      "of fic",
      "h ist",
      "call ed",
      "i de",
      "un g",
      "st or",
      "19 4",
      "b ed",
      "m em",
      "l ack",
      "m ill",
      "c le",
      "w est",
      "sever al",
      "op er",
      "u ch",
      "comp le",
      "l an",
      "s ign",
      "be gan",
      "19 6",
      "b all",
      "m ay",
      "B e",
      "19 7",
      "C on",
      "v es",
      "ro ad",
      "de c",
      "is ed",
      "p ol",
      "re main",
      "u ally",
      "s m",
      "ne ar",
      "ear ly",
      "he ad",
      "pres ent",
      "c ould",
      "c rit",
      "S he",
      "d id",
      "i fic",
      "r un",
      "epis ode",
      "er al",
      "w ar",
      "l a",
      "p le",
      "end ed",
      "je ct",
      "un e",
      "st e",
      "d am",
      "re ce",
      "op le",
      "sel f",
      "al ong",
      "lar ge",
      "n am",
      "spe c",
      "W or",
      "tr y",
      "res s",
      "o re",
      "sa id",
      "Americ an",
      "suc cess",
      "v id",
      "the se",
      "F or",
      "i th",
      "gu st",
      "ak ing",
      "M ay",
      "m il",
      "pos ition",
      "op en",
      "M ar",
      "m s",
      "p or",
      "p ass",
      "de p",
      "st em",
      "Brit ish",
      "m et",
      "le y",
      "ers on",
      "S h",
      "unt il",
      "W ar",
      "f am",
      "le g",
      "n ow",
      "rele ased",
      "st art",
      "c ity",
      "in es",
      "o od",
      "G er",
      "mus ic",
      "s ame",
      "to w",
      "v al",
      "S e",
      "ther n",
      "i ved",
      "ret urn",
      "C ar",
      "The y",
      "5 0",
      "g g",
      "k m",
      "c y",
      "are a",
      "des ign",
      "r u",
      "j or",
      "mill ion",
      "t ri",
      "or n",
      "st ate",
      "bec ause",
      "m is",
      "c a",
      "a ther",
      "form ed",
      "x t",
      "e ach",
      "s im",
      "pl ac",
      "Au gust",
      "1 4",
      "in k",
      "over n",
      "ri st",
      "com e",
      "v ol",
      "h y",
      "fe ct",
      "re ad",
      "vi de",
      "li fe",
      "pe ople",
      "1 3",
      "e ast",
      "ow er",
      "gr ap",
      "S ep",
      "ro ss",
      "cho ol",
      "J u",
      "n ational",
      "ser v",
      "c ar",
      "sup port",
      "si x",
      "co un",
      "i o",
      "ar ound",
      "le t",
      "str al",
      "H owever",
      "it t",
      "i b",
      "gro up",
      "I s",
      "is ion",
      "ro te",
      "fi eld",
      "nor th",
      "iz ed",
      "B o",
      "att ack",
      "li st",
      "ou se",
      "tem ber",
      "Sep tember",
      "cons id",
      "F e",
      "sm all",
      "di st",
      "bo ok",
      "follow ing",
      "m en",
      "charac ter",
      "contin u",
      "l ight",
      "w ill",
      "l ess",
      "m ark",
      "Wor ld",
      "ur ed",
      "en n",
      "pro te",
      "cont ro",
      "E u",
      "as h",
      "Au stral",
      "to p",
      "ver y",
      "f ive",
      "s ou",
      "l ate",
      "w in",
      "res ult",
      "gro und",
      "v ent",
      "al es",
      "l ish",
      "d om",
      "re qu",
      "g et",
      "wh at",
      "s ol",
      "cord ing",
      "t it",
      "st and",
      "an k",
      "ag ue",
      "re st",
      "tr ack",
      "iver s",
      "C ol",
      "re port",
      "U S",
      "a im",
      "ur al",
      "b ers",
      "a z",
      "od y",
      "vis ion",
      "J une",
      "re ach",
      "Nor th",
      "play ed",
      "ag ed",
      "ir ed",
      "fin al",
      "i ed",
      "ct or",
      "bu ild",
      "we ek",
      "l ast",
      "p on",
      "H er",
      "n ame",
      "v ari",
      "at ter",
      "co unt",
      "i ous",
      "F ran",
      "overn ment",
      "all ow",
      "c he",
      "p rom",
      "sy stem",
      "1 1",
      "g un",
      "s ince",
      "St ates",
      "O c",
      "spec ies",
      "c are",
      "publ ic",
      "t al",
      "s outh",
      "rece ived",
      "om an",
      "de f",
      "ist s",
      "ma jor",
      "0 s",
      "as k",
      "to ok",
      "W il",
      "c our",
      "g y",
      "J an",
      "ate ly",
      "so ci",
      "ev en",
      "c ut",
      "oc k",
      "in ed",
      "ch ild",
      "part ic",
      "S outh",
      "w on",
      "2 5",
      "ag es",
      "b att",
      "ain ed",
      "Ch rist",
      "K ing",
      "ap pro",
      "fi ed",
      "ward s",
      "descri bed",
      "c ast",
      "to ber",
      "Oc tober",
      "wor ld",
      "pl ace",
      "im e",
      "M an",
      "j ust",
      "mo ved",
      "G u",
      "m b",
      "on y",
      "g iv",
      "P l",
      "in cre",
      "il t",
      "h am",
      "rop ical",
      "A c",
      "or k",
      "con stru",
      "M e",
      "g re",
      "r is",
      "or gan",
      "li am",
      "vi ous",
      "w rote",
      "ion al",
      "ain s",
      "Ju ly",
      "Y ork",
      "b and",
      "k ill",
      "in a",
      "nam ed",
      "tow n",
      "u de",
      "g in",
      "se qu",
      "b re",
      "ard s",
      "dif fer",
      "G r",
      "D uring",
      "m uch",
      "p ri",
      "c amp",
      "w ater",
      "du e",
      "C an",
      "li e",
      "A pr",
      "u te",
      "pos ed",
      "sing le",
      "Apr il",
      "M on",
      "af t",
      ".. .",
      "de ath",
      "p ower",
      "Eu ro",
      "an other",
      "ver sion",
      "includ ed",
      "h and",
      "y s",
      "il ity",
      "19 5",
      "ord er",
      "tem pt",
      "at ure",
      "Ger man",
      "st on",
      "Jan uary",
      "sh ort",
      "W est",
      "et s",
      "P ar",
      "with in",
      "est ab",
      "ev ent",
      "Eng land",
      "st ud",
      "gen er",
      "ant s",
      "ship s",
      "u di",
      "or ed",
      "le ft",
      "bu ilt",
      "M a",
      "b ased",
      "f ur",
      "al though",
      "s ed",
      "at tempt",
      "l ing",
      "p erson",
      "ro und",
      "fam ily",
      "r ight",
      "er y",
      "h al",
      "th ird",
      "cl aim",
      "em ent",
      "g ames",
      "h ome",
      "C l",
      "M arch",
      "it al",
      "A ll",
      "s ent",
      "ak es",
      "pe ct",
      "p en",
      "pre vious",
      "f all",
      "ve mber",
      "No vember",
      "re view",
      "tr a",
      "peri od",
      "be st",
      "19 3",
      "is su",
      "s chool",
      "st ory",
      "c as",
      "Euro pe",
      "h um",
      "H is",
      "g overnment",
      "t urn",
      "at s",
      "ex pl",
      "ad v",
      "ce mber",
      "De cember",
      "m ake",
      "o ve",
      "il ar",
      "th ose",
      "j o",
      "t ing",
      "ro y",
      "ur ric",
      "de st",
      "av y",
      "B y",
      "Th ere",
      "origin al",
      "S te",
      "us ing",
      "stor m",
      "C ity",
      "st er",
      "An d",
      "th ing",
      "ch an",
      "ul ation",
      "is m",
      "comp any",
      "ex t",
      "comm and",
      "G e",
      "row n",
      "mon th",
      "re al",
      "Wh en",
      "f act",
      "i ally",
      "k ing",
      "en se",
      "n er",
      "it ary",
      "m atch",
      "on s",
      "200 9",
      "au th",
      "fl u",
      "et y",
      "ren ch",
      "vide o",
      "N ational",
      "r al",
      "ar m",
      "cl ub",
      "200 8",
      "201 0",
      "S c",
      "tr ad",
      "o ung",
      "f ac",
      "ro le",
      "col le",
      "c or",
      "ch urch",
      "In di",
      "iv ision",
      "gr am",
      "S o",
      "W e",
      "re f",
      "R iver",
      "en ces",
      "for man",
      "st ill",
      "mo ve",
      "c us",
      "play er",
      "M c",
      "ic ally",
      "pos si",
      "st it",
      "b ro",
      "ivers ity",
      "add ition",
      "ri end",
      "L i",
      "c ame",
      "i x",
      "ent ly",
      "ch ed",
      "cl ass",
      "loc al",
      "i um",
      "of ten",
      "hist ory",
      "2 4",
      "l s",
      "al i",
      "form er",
      "s ite",
      "hal f",
      "urric ane",
      "2 6",
      "l im",
      "st ri",
      "1 00",
      "m ag",
      "tr act",
      "ak en",
      "continu ed",
      "2 1",
      "ian s",
      "dr aw",
      "S p",
      "2 3",
      "ne xt",
      "200 7",
      "gg est",
      "consid ered",
      "A d",
      "ro du",
      "ef fect",
      "2 8",
      "su ggest",
      "a e",
      "p ut",
      "s ay",
      "record ed",
      "F rench",
      "z e",
      "re fer",
      "fe w",
      "qu e",
      "qu ar",
      "publ ished",
      "sim ilar",
      "care er",
      "O ne",
      "m id",
      "D y",
      "b ody",
      "m ar",
      "Eng lish",
      "he ld",
      "per forman",
      "plac ed",
      "t ake",
      "in it",
      "im port",
      "produ ction",
      "G en",
      "end ing",
      "a h",
      "m p",
      "P r",
      "el t",
      "B att",
      "ar ed",
      "differ ent",
      "T r",
      "v o",
      "ri but",
      "ut ion",
      "ch ang",
      "us h",
      "O r",
      "m and",
      "id ge",
      "E ar",
      "w ind",
      "y ou",
      "im es",
      "lar g",
      "with out",
      "comm un",
      "song s",
      "d en",
      "amp ion",
      "P e",
      "W ith",
      "ar s",
      "ain ing",
      "writ ten",
      "ic o",
      "am ong",
      "st y",
      "le vel",
      "l er",
      "str ong",
      "St ate",
      "pol it",
      "l or",
      "for ce",
      "se ven",
      "for t",
      "ber t",
      "h ouse",
      "act ion",
      "ever y",
      "t ro",
      "id ed",
      "In ter",
      "D ivision",
      "v il",
      "201 1",
      "rele ase",
      "wh ite",
      "stru ct",
      "fur ther",
      "t ropical",
      "im ent",
      "be come",
      "day s",
      "200 6",
      "Ac cording",
      "Al though",
      "Ch urch",
      "ste ad",
      "h owever",
      "fin d",
      "2 2",
      "Can ad",
      "B ar",
      "g ed",
      "ast er",
      "f r",
      "p ite",
      "M us",
      "it ar",
      "T e",
      "tit le",
      "auth or",
      "st udi",
      "op s",
      "cr aft",
      "partic ular",
      "n ess",
      "mil itary",
      "res pon",
      "S er",
      "b ird",
      "h ow",
      "fo ot",
      "au gh",
      "grap h",
      "2 7",
      "mem bers",
      "R oman",
      "f lo",
      "Ch ar",
      "Le ague",
      "pop ular",
      "P er",
      "P ort",
      "g n",
      "wi de",
      "m m",
      "sc en",
      "w ent",
      "S ong",
      "h old",
      "ap p",
      "br uary",
      "hist or",
      "Fe bruary",
      "a i",
      "lo st",
      "tim es",
      "mis sion",
      "it er",
      "dire ct",
      "b ar",
      "g ave",
      "s it",
      "ive ly",
      "itt le",
      "produ ced",
      "success ful",
      "f an",
      "te le",
      "report ed",
      "M is",
      "Dy lan",
      "f riend",
      "pro vid",
      "Ge or",
      "ser ved",
      "olog y",
      "cle ar",
      "pr of",
      "201 2",
      "fi re",
      "el s",
      "mo d",
      "cap t",
      "to tal",
      "di vid",
      "comm on",
      "O ld",
      "P o",
      "P ark",
      "c ult",
      "te st",
      "se arch",
      "w ood",
      "cover ed",
      "child ren",
      "om in",
      "n ight",
      "for ces",
      "de cl",
      "giv en",
      "ent er",
      "p s",
      "se en",
      "for d",
      "J ap",
      "at or",
      "st ated",
      "Jap an",
      "su re",
      "cept ion",
      "M in",
      "ha ving",
      "incl ude",
      "crit ic",
      "to ur",
      "dep end",
      "f ace",
      "f ail",
      "se e",
      "g reat",
      "in du",
      "in vol",
      "ction s",
      "in flu",
      "al ion",
      "cl ose",
      "aw ay",
      "w ant",
      "re present",
      "Co unt",
      "an no",
      "Af ric",
      "T o",
      "y oung",
      "comp et",
      "coun try",
      "b as",
      "sign ific",
      "man ag",
      "Com p",
      "P ol",
      "m aking",
      "st re",
      "om en",
      "201 3",
      "S im",
      "n et",
      "ic es",
      "ne y",
      "f ron",
      "contro l",
      "it ch",
      "D es",
      "r ad",
      "ed er",
      "ch n",
      "ri ver",
      "pro gram",
      "lo ok",
      "oc cur",
      "f ather",
      "ne ver",
      "com b",
      "pl oy",
      "Gen eral",
      "a ur",
      "l ished",
      "v ict",
      "sh ould",
      "pro ject",
      "Wh ile",
      "constru ction",
      "po st",
      "writ ing",
      "g l",
      "pl an",
      "od s",
      "return ed",
      "n ed",
      "ist er",
      "Un iversity",
      "chan ge",
      "T w",
      "b l",
      "are n",
      "mi x",
      "f em",
      "x im",
      "develop ed",
      "estab lished",
      "i ther",
      "Sc ot",
      "2 9",
      "P h",
      "id es",
      "reach ed",
      "a x",
      "to o",
      "ch art",
      "19 0",
      "Th ese",
      "Americ a",
      "om et",
      "be lie",
      "ens ive",
      "c ing",
      "is land",
      "so und",
      "act iv",
      "D av",
      "I re",
      "pop ulation",
      "anno un",
      "B C",
      "e qu",
      "l aw",
      "work s",
      "way s",
      "H a",
      "J ack",
      "h our",
      "am a",
      "com ing",
      "ear li",
      "no vel",
      "di ed",
      "w ord",
      "ab ly",
      "ant ic",
      "not ed",
      "int rodu",
      "Ire land",
      "4 0",
      "A ir",
      "b ur",
      "t ail",
      "ig ade",
      "te ll",
      "ran ge",
      "g es",
      "ac ross",
      "though t",
      "through out",
      "build ing",
      "b lo",
      "c ou",
      "ag re",
      "ition s",
      "ond on",
      "V i",
      "P ro",
      "L ondon",
      "an ces",
      "su m",
      "g ar",
      "ex p",
      "him self",
      "ful l",
      "f elt",
      "develop ment",
      "Wil liam",
      "te en",
      "E ast",
      "at ic",
      "bo ard",
      "um ent",
      "per formed",
      "gro w",
      "comple te",
      "M ich",
      "r ap",
      "import ant",
      "signific ant",
      "ren t",
      "Austral ia",
      "ain t",
      "ty p",
      "p ur",
      "ad es",
      "e ight",
      "At l",
      "hum an",
      "dest roy",
      "mil es",
      "ro om",
      "li ve",
      "tele vision",
      "B lack",
      "inter est",
      "vari ous",
      "sty le",
      "f le",
      "are as",
      "b lack",
      "ke y",
      "s k",
      "set t",
      "E d",
      "appear ed",
      "R ich",
      "b us",
      "other s",
      "rel ation",
      "b or",
      "h ip",
      "do es",
      "offic ial",
      "a ign",
      "de l",
      "ev ents",
      "m arri",
      "ne ed",
      "H ar",
      "d a",
      "su f",
      "Ro ad",
      "Re g",
      "med i",
      "i or",
      "am b",
      "play ers",
      "start ed",
      "J ames",
      "n d",
      "on es",
      "id ence",
      "Ro y",
      "mod ern",
      "h ind",
      "ge ther",
      "pr a",
      "t ion",
      "ot s",
      "ap point",
      "ex peri",
      "fe et",
      "olog ical",
      "H igh",
      "i fied",
      "it ive",
      "po em",
      "a ver",
      "c il",
      "op e",
      "cre ated",
      "performan ce",
      "Count y",
      "fron t",
      "n u",
      "pr im",
      "loc ated",
      "W al",
      "ca used",
      "af f",
      "iv es",
      "ce ll",
      "te chn",
      "K e",
      "f un",
      "f ig",
      "18 9",
      "Mo unt",
      "6 0",
      "Y ou",
      "v ill",
      "al th",
      "se x",
      "mo ther",
      "mo unt",
      "ag o",
      "ab or",
      "ric k",
      "B er",
      "st ant",
      "co ast",
      "200 4",
      "P al",
      "200 5",
      "form ation",
      "pres sion",
      "go od",
      "T V",
      "n a",
      "ac y",
      "amp le",
      "polit ical",
      "C or",
      "H o",
      "ro ck",
      "charac ters",
      "m it",
      "the ast",
      "rel ig",
      "M ag",
      "S ci",
      "b es",
      "N e",
      "n al",
      "t aken",
      "r ul",
      "re w",
      "be gin",
      "m un",
      "in ess",
      "b orn",
      "co re",
      "cr u",
      "S u",
      "T own",
      "go al",
      "Mon t",
      "b urn",
      "C are",
      "f ight",
      "v ic",
      "on ce",
      "ver t",
      "av es",
      "gr ad",
      "sc ri",
      "f ar",
      "n ia",
      "pr ed",
      "remain ed",
      "f av",
      "r ing",
      "in ation",
      "is on",
      "it ing",
      "comple ted",
      "batt le",
      "kill ed",
      "Ph il",
      "y ard",
      "qu ad",
      "fic ult",
      "sc ored",
      "reg ion",
      "dif ficult",
      "King dom",
      "H ist",
      "O f",
      "i ble",
      "m or",
      "s ess",
      "of fer",
      "ard ed",
      "gun s",
      "in v",
      "me et",
      "Is land",
      "Austral ian",
      "camp aign",
      "trad ition",
      "announ ced",
      "F eder",
      "v an",
      "de but",
      "ubl ic",
      "Mus ic",
      "k ed",
      "om b",
      "B l",
      "k s",
      "an im",
      "star s",
      "C up",
      "ho st",
      "Comp any",
      "S y",
      "l ittle",
      "is ing",
      "pro cess",
      "pe ak",
      "ex ist",
      "add ed",
      "in stead",
      "hel p",
      "S om",
      "l ines",
      "n ames",
      "st at",
      "as ing",
      "P a",
      "a el",
      "ci ent",
      "possi ble",
      "rough t",
      "le ast",
      "con ne",
      "co gn",
      "follow ed",
      "H am",
      "red u",
      "s aw",
      "ent ire",
      "be t",
      "pt ion",
      "kn ow",
      "mem ber",
      "E x",
      "a id",
      "c ause",
      "or ies",
      "to gether",
      "origin ally",
      "month s",
      "al ity",
      "wi fe",
      "com ment",
      "reg ular",
      "Ar my",
      "u es",
      "sou thern",
      "Dav id",
      "S ome",
      "r ain",
      "res ident",
      "lo ss",
      "ree k",
      "An g",
      "Gr and",
      "stud y",
      "h urricane",
      "u g",
      "en ced",
      "c ir",
      "t ar",
      "w omen",
      "as soci",
      "pres s",
      "er a",
      "east ern",
      "Fran ce",
      "B ill",
      "ap e",
      "av ing",
      "open ed",
      "m ass",
      "le ct",
      "Ch ampion",
      "200 3",
      "crit ics",
      "st one",
      "play ing",
      "event ually",
      "cons ist",
      "feat ures",
      "O ther",
      "ut es",
      "201 5",
      "b ase",
      "b road",
      "p air",
      "ve st",
      "fi f",
      "L ove",
      "c arri",
      "d ri",
      "h or",
      "re cogn",
      "rou te",
      "four th",
      "h ab",
      "s port",
      "ab ility",
      "Tw o",
      "g ot",
      "v oc",
      "for ced",
      "dec ided",
      "s l",
      "ough t",
      "ac cept",
      "ot a",
      "est im",
      "dam age",
      "prof ess",
      "F o",
      "n on",
      "al y",
      "he avy",
      "ap er",
      "point s",
      "bird s",
      "e ither",
      "w all",
      "Batt alion",
      "ter min",
      "pro ble",
      "tem por",
      "ele ct",
      "A b",
      "be hind",
      "fin ished",
      "comm er",
      "lead ing",
      "cer t",
      "bre ak",
      "c op",
      "se mb",
      "am ent",
      "ul l",
      "az ine",
      "belie ved",
      "Care y",
      "s old",
      "se par",
      "form s",
      "spe ci",
      "writ er",
      "cur rent",
      "M i",
      "i que",
      "n at",
      "t re",
      "cond om",
      "in divid",
      "liam ent",
      "claim ed",
      "in c",
      "im pro",
      "E l",
      "us es",
      "appear ance",
      "F in",
      "M or",
      "em ploy",
      "ex ample",
      "spe cial",
      "fan try",
      "Roy al",
      "d on",
      "al most",
      "18 8",
      "u ck",
      "st s",
      "comp an",
      "M ex",
      "v ir",
      "y ards",
      "iz ation",
      "dire cted",
      "Europe an",
      "u c",
      "ar a",
      "res pect",
      "lan gu",
      "serv ice",
      "gener ally",
      "Feder er",
      "m ater",
      "p ie",
      "to wards",
      "vi er",
      "ign ed",
      "Ro bert",
      "ele ments",
      "west ern",
      "od es",
      "2 nd",
      "b rought",
      "c ase",
      "d ou",
      "s our",
      "low er",
      "Br igade",
      "week s",
      "c up",
      "m ph",
      "con cl",
      "end s",
      "up on",
      "Inter national",
      "E v",
      "H en",
      "O li",
      "W ales",
      "m ot",
      "ill a",
      "St re",
      "ll ed",
      "cent ral",
      "la un",
      "3 1",
      "ic ated",
      "be l",
      "ce ed",
      "str y",
      "bo di",
      "high way",
      "feat ured",
      "3 5",
      "st age",
      "air craft",
      "read y",
      "Vi et",
      "F lor",
      "ter m",
      "ass ist",
      "dire ctor",
      "G od",
      "id a",
      "cre w",
      "me an",
      "D u",
      "d le",
      "vi a",
      "gen eral",
      "Wh ite",
      "sur vi",
      "P art",
      "re search",
      "am o",
      "de fe",
      "ver s",
      "con tract",
      "appro ach",
      "G ame",
      "S A",
      "p ly",
      "s w",
      "provid ed",
      "Geor ge",
      "D ay",
      "ord an",
      "me as",
      "A ct",
      "e y",
      "f und",
      "i er",
      "com pl",
      "cre t",
      "grap hy",
      "Pl ay",
      "V al",
      "F ollow",
      "J ordan",
      "f ly",
      "le ar",
      "ot ed",
      "part s",
      "Her o",
      "earli er",
      "F rom",
      "f ree",
      "re ve",
      "Th om",
      "allow ed",
      "C ent",
      "h on",
      "201 4",
      "ra ther",
      "fem ale",
      "Atl antic",
      "H ouse",
      "n ar",
      "p at",
      "r ation",
      "ing ton",
      "se a",
      "in o",
      "open ing",
      "larg est",
      "vict ory",
      "Follow ing",
      "J ew",
      "re ason",
      "he el",
      "work ed",
      "sub sequ",
      "use um",
      "cer tain",
      "oper ations",
      "Christ ian",
      "particular ly",
      "manag er",
      "D r",
      "M ad",
      "R ep",
      "19 th",
      "ci ally",
      "tra vel",
      "tro ops",
      "F ir",
      "M ary",
      "au di",
      "sp ir",
      "work ing",
      "ra il",
      "II I",
      "jo ined",
      "want ed",
      "se ction",
      "ur b",
      "con du",
      "R ed",
      "ev idence",
      "stand ing",
      "S an",
      "re li",
      "nor thern",
      "Com mand",
      "Flor ida",
      "Pa ul",
      "7 0",
      "I r",
      "R ock",
      "l eng",
      "n ine",
      "he st",
      "ant i",
      "out side",
      "eng ine",
      "Stre et",
      "st ren",
      "lo ve",
      "say ing",
      "M ed",
      "c ross",
      "is sion",
      "el low",
      "pr act",
      "f re",
      "wh om",
      "em y",
      "issu e",
      "hour s",
      "at ors",
      "ent ial",
      "con om",
      "col l",
      "A A",
      "G re",
      "h ar",
      "at a",
      "ac count",
      "200 1",
      "av ail",
      "18 5",
      "sou ri",
      "Mis souri",
      "C r",
      "stren g",
      "3 8",
      "5 00",
      "B ra",
      "at in",
      "de al",
      "ter rit",
      "leng th",
      "M y",
      "S w",
      "m ach",
      "n omin",
      "te l",
      "cour t",
      "Te ch",
      "G al",
      "L o",
      "in ch",
      "st ay",
      "te e",
      "pl ann",
      "mater ial",
      "g old",
      "p ing",
      "po or",
      "cy cl",
      "design ed",
      "B ay",
      "C ro",
      "se em",
      "pro b",
      "po ol",
      "min ist",
      "quar ter",
      "th ink",
      "ar gu",
      "so on",
      "pra ised",
      "D on",
      "M ark",
      "g er",
      "n es",
      "ish ing",
      "qu est",
      "remain s",
      "Indi an",
      "foot ball",
      "Fir st",
      "B est",
      "d ed",
      "d rop",
      "al and",
      "coun ter",
      "suf fer",
      "amo unt",
      "Z e",
      "b ill",
      "d ate",
      "h ous",
      "t ies",
      "st ation",
      "fl ight",
      "wind s",
      "Mich ael",
      "R os",
      "p has",
      "sh o",
      "qu ick",
      "iv al",
      "dis cus",
      "ty pe",
      "incre ased",
      "P ri",
      "c ul",
      "p ast",
      "s cre",
      "vi ol",
      "Co un",
      "previous ly",
      "appoint ed",
      "4 5",
      "B us",
      "E gy",
      "d ol",
      "in j",
      "re placed",
      "un its",
      "ic a",
      "ac c",
      "de li",
      "ab ove",
      "pres sed",
      "C ap",
      "e cut",
      "Rich ard",
      "D ep",
      "er ous",
      "land s",
      "ran ch",
      "main tain",
      "pass ed",
      "relation ship",
      "A m",
      "s po",
      "en ed",
      "al ter",
      "id s",
      "cl os",
      "ci vil",
      "Des pite",
      "bus iness",
      "p ain",
      "r id",
      "in vest",
      "ar ies",
      "ig hest",
      "inter view",
      "sign ed",
      "flo od",
      "h ib",
      "t aking",
      "th reat",
      "ach ie",
      "go ing",
      "ribut ed",
      "Hen ry",
      "H ill",
      "18 6",
      "os aur",
      "Canad a",
      "quad ron",
      "estim ated",
      "speci fic",
      "F A",
      "Q ue",
      "a ult",
      "f f",
      "i k",
      "r ace",
      "v ice",
      "ran g",
      "avail able",
      "h ighest",
      "n ative",
      "s omet",
      "t or",
      "u el",
      "struct ure",
      "Japan ese",
      "st op",
      "se ll",
      "pl es",
      "Car ol",
      "sit u",
      "Old ham",
      "invol ved",
      "P resident",
      "T imes",
      "V er",
      "m ust",
      "t reat",
      "com es",
      "suggest ed",
      "mix ed",
      "T or",
      "V ir",
      "l ay",
      "sh ot",
      "estab lish",
      "turn ed",
      "introdu ced",
      "A p",
      "B rown",
      "in st",
      "re cent",
      "us ually",
      "go als",
      "like ly",
      "scen e",
      "scri pt",
      "Oli vier",
      "it self",
      "le ague",
      "ent ion",
      "pro per",
      "L ater",
      "c ern",
      "one y",
      "act ions",
      "Ch in",
      "bo und",
      "Mo st",
      "trans port",
      "Indi a",
      "aver age",
      "Mex ico",
      "g ive",
      "s is",
      "an a",
      "to lo",
      "Ar ab",
      "Egy pt",
      "R ac",
      "S chool",
      "l am",
      "al d",
      "ol ic",
      "lim ited",
      "9 0",
      "l in",
      "to ld",
      "su per",
      "si a",
      "who se",
      "record ing",
      "vill age",
      "C am",
      "C ong",
      "b ri",
      "it a",
      "trans fer",
      "bro ther",
      "respon si",
      "Thom as",
      "b ow",
      "m ing",
      "or ing",
      "si ze",
      "pre par",
      "possi b",
      "xim ately",
      "relig ious",
      "Ir ish",
      "h it",
      "v in",
      "ord ered",
      "oc cup",
      "blo ck",
      "tempor ary",
      "B ut",
      "P ac",
      "h om",
      "p ond",
      "be ll",
      "18 7",
      "Brit ain",
      "show s",
      "dam aged",
      "th us",
      "comm ission",
      "incre asing",
      "Rep ublic",
      "8 0",
      "H urricane",
      "N Y",
      "S tr",
      "W heel",
      "i ent",
      "k y",
      "m ult",
      "r ay",
      "ed uc",
      "to uch",
      "ic ted",
      "ist ic",
      "mark ed",
      "M ac",
      "M any",
      "the dr",
      "ir th",
      "sp ace",
      "des pite",
      "Ro se",
      "near ly",
      "Gu itar",
      "chang es",
      "H el",
      "H all",
      "w atch",
      "be li",
      "for ward",
      "cl o",
      "so cial",
      "fe el",
      "consid er",
      "commun ity",
      "Ze aland",
      "R ou",
      "S un",
      "a ut",
      "e conom",
      "m al",
      "in depend",
      "de fin",
      "sur round",
      "J er",
      "d augh",
      "er r",
      "le cted",
      "Un ion",
      "inter national",
      "ob ject",
      "ron ic",
      "list ed",
      "init ially",
      "commer cial",
      "r ate",
      "al ready",
      "ac es",
      "im medi",
      "ct s",
      "us ion",
      "Th at",
      "ask ed",
      "Pe ter",
      "h ard",
      "m ight",
      "ch ap",
      "de tail",
      "de pression",
      "arch ae",
      "ann a",
      "win ning",
      "Ear ly",
      "fail ed",
      "Champion ship",
      "Chin ese",
      "3 6",
      "G old",
      "g ress",
      "w oman",
      "st ates",
      "es pe",
      "ac cording",
      "pe cted",
      "tr aining",
      "rel ated",
      "cap ital",
      "langu age",
      "prob ably",
      "Pac ific",
      "espe cially",
      "E m",
      "h ere",
      "v ate",
      "ar ily",
      "ex ecut",
      "200 2",
      "oc cas",
      "min or",
      "vis it",
      "M os",
      "f ut",
      "en j",
      "il ities",
      "ch ol",
      "te xt",
      "co st",
      "comm it",
      "studi o",
      "nat ural",
      "i eld",
      "l iter",
      "p ot",
      "co ach",
      "ha ir",
      "sp ent",
      "includ es",
      "arri ved",
      "Hist ory",
      "Wheel er",
      "A wards",
      "J in",
      "g od",
      "en ough",
      "ar my",
      "res pond",
      "mo ving",
      "ph o",
      "remain ing",
      "partic ip",
      "Canad ian",
      "hab it",
      "thedr al",
      "C ath",
      "L aw",
      "N avy",
      "m ale",
      "art s",
      "ment ion",
      "cent er",
      "pre vent",
      "somet imes",
      "U K",
      "d y",
      "d oc",
      "p it",
      "at ory",
      "al ed",
      "ul a",
      "requ ired",
      "appro ximately",
      "review s",
      "quar ters",
      "R es",
      "f ru",
      "h ap",
      "l atter",
      "n ation",
      "n el",
      "s low",
      "am ed",
      "de ad",
      "ph ys",
      "position s",
      "S ing",
      "k en",
      "p an",
      "s at",
      "at ers",
      "ri es",
      "ne st",
      "As soci",
      "ton s",
      "Afric a",
      "begin ning",
      "ur t",
      "po und",
      "per form",
      "200 0",
      "run ning",
      "Ang el",
      "C reek",
      "F ilm",
      "M id",
      "l ot",
      "in ated",
      "en tolo",
      "ate g",
      "ex c",
      "not es",
      "ie f",
      "dec ision",
      "sol di",
      "Sci entolo",
      "defe ated",
      "P re",
      "b it",
      "s en",
      "y er",
      "St ar",
      "Ar t",
      "addition al",
      "Reg iment",
      "Su per",
      "L u",
      "j our",
      "o id",
      "ic ation",
      "ev ol",
      "pres ident",
      "respon se",
      "bet ter",
      "Vir gin",
      "Rac hel",
      "H ol",
      "ar ing",
      "con cern",
      "ud ed",
      "pos itive",
      "fer ence",
      "stud ents",
      "larg er",
      "L ight",
      "a by",
      "w he",
      "si p",
      "support ed",
      "Col le",
      "constru cted",
      "mag azine",
      "capt ured",
      "1 st",
      "A ward",
      "G l",
      "O ly",
      "b ot",
      "st aff",
      "fo od",
      "pres sure",
      "ric s",
      "br idge",
      "pol ice",
      "chang ed",
      "Scot t",
      "agre ed",
      "Oly mp",
      "L ad",
      "c al",
      "po et",
      "act ive",
      "Char les",
      "fle et",
      "R us",
      "b irth",
      "s core",
      "ce le",
      "sh own",
      "199 5",
      "Bill board",
      "H u",
      "f requ",
      "te ach",
      "av en",
      "ass igned",
      "play s",
      "fut ure",
      "F I",
      "P enn",
      "p ay",
      "ac cess",
      "pro vide",
      "pr int",
      "loc ation",
      "fif th",
      "7 5",
      "T om",
      "r d",
      "ac qu",
      "ct ive",
      "ag on",
      "um ents",
      "po se",
      "av al",
      "ke ep",
      "dis covered",
      "sel ves",
      "H or",
      "ap pl",
      "tem per",
      "sy n",
      "feat ure",
      "broad cast",
      "Rou te",
      "R i",
      "n y",
      "p itch",
      "s al",
      "is s",
      "it z",
      "am i",
      "be coming",
      "sub ject",
      "sur face",
      "ide a",
      "pri or",
      "cir c",
      "u als",
      "and er",
      "de feat",
      "Ar ch",
      "if a",
      "ris on",
      "3 3",
      "C er",
      "N A",
      "c m",
      "ex am",
      "bo x",
      "oper ation",
      "small er",
      "West ern",
      "F ort",
      "in ci",
      "id ents",
      "int ended",
      "group s",
      "sum mer",
      "Scientolo gy",
      "G o",
      "G reat",
      "S ou",
      "p aren",
      "ce an",
      "ex ten",
      "ish op",
      "per cent",
      "most ly",
      "them selves",
      "ste in",
      "met res",
      "Ha ifa",
      "4 8",
      "B ro",
      "O t",
      "Y ear",
      "m akes",
      "or ial",
      "as si",
      "ch ampion",
      "ot ion",
      "li es",
      "qu are",
      "201 6",
      "min utes",
      "iz e",
      "refer red",
      "fav or",
      "B ri",
      "D an",
      "G ro",
      "S ince",
      "f low",
      "h op",
      "n ers",
      "ed y",
      "en on"
    ]
  }
}